{"<|endoftext|>":0,"!":1,"\"":2,"#":3,"$":4,"%":5,"&":6,"'":7,"(":8,")":9,"*":10,"+":11,",":12,"-":13,".":14,"/":15,"0":16,"1":17,"2":18,"3":19,"4":20,"5":21,"6":22,"7":23,"8":24,"9":25,":":26,";":27,"<":28,"=":29,">":30,"?":31,"@":32,"A":33,"B":34,"C":35,"D":36,"E":37,"F":38,"G":39,"H":40,"I":41,"J":42,"K":43,"L":44,"M":45,"N":46,"O":47,"P":48,"Q":49,"R":50,"S":51,"T":52,"U":53,"V":54,"W":55,"X":56,"Y":57,"Z":58,"[":59,"\\":60,"]":61,"^":62,"_":63,"`":64,"a":65,"b":66,"c":67,"d":68,"e":69,"f":70,"g":71,"h":72,"i":73,"j":74,"k":75,"l":76,"m":77,"n":78,"o":79,"p":80,"q":81,"r":82,"s":83,"t":84,"u":85,"v":86,"w":87,"x":88,"y":89,"z":90,"{":91,"|":92,"}":93,"~":94,"¡":95,"¢":96,"£":97,"¤":98,"¥":99,"¦":100,"§":101,"¨":102,"©":103,"ª":104,"«":105,"¬":106,"®":107,"¯":108,"°":109,"±":110,"²":111,"³":112,"´":113,"µ":114,"¶":115,"·":116,"¸":117,"¹":118,"º":119,"»":120,"¼":121,"½":122,"¾":123,"¿":124,"À":125,"Á":126,"Â":127,"Ã":128,"Ä":129,"Å":130,"Æ":131,"Ç":132,"È":133,"É":134,"Ê":135,"Ë":136,"Ì":137,"Í":138,"Î":139,"Ï":140,"Ð":141,"Ñ":142,"Ò":143,"Ó":144,"Ô":145,"Õ":146,"Ö":147,"×":148,"Ø":149,"Ù":150,"Ú":151,"Û":152,"Ü":153,"Ý":154,"Þ":155,"ß":156,"à":157,"á":158,"â":159,"ã":160,"ä":161,"å":162,"æ":163,"ç":164,"è":165,"é":166,"ê":167,"ë":168,"ì":169,"í":170,"î":171,"ï":172,"ð":173,"ñ":174,"ò":175,"ó":176,"ô":177,"õ":178,"ö":179,"÷":180,"ø":181,"ù":182,"ú":183,"û":184,"ü":185,"ý":186,"þ":187,"ÿ":188,"Ā":189,"ā":190,"Ă":191,"ă":192,"Ą":193,"ą":194,"Ć":195,"ć":196,"Ĉ":197,"ĉ":198,"Ċ":199,"ċ":200,"Č":201,"č":202,"Ď":203,"ď":204,"Đ":205,"đ":206,"Ē":207,"ē":208,"Ĕ":209,"ĕ":210,"Ė":211,"ė":212,"Ę":213,"ę":214,"Ě":215,"ě":216,"Ĝ":217,"ĝ":218,"Ğ":219,"ğ":220,"Ġ":221,"ġ":222,"Ģ":223,"ģ":224,"Ĥ":225,"ĥ":226,"Ħ":227,"ħ":228,"Ĩ":229,"ĩ":230,"Ī":231,"ī":232,"Ĭ":233,"ĭ":234,"Į":235,"į":236,"İ":237,"ı":238,"Ĳ":239,"ĳ":240,"Ĵ":241,"ĵ":242,"Ķ":243,"ķ":244,"ĸ":245,"Ĺ":246,"ĺ":247,"Ļ":248,"ļ":249,"Ľ":250,"ľ":251,"Ŀ":252,"ŀ":253,"Ł":254,"ł":255,"Ń":256,"he":257,"Ġt":258,"in":259,"Ġa":260,"Ġs":261,"Ġthe":262,"ou":263,"Ġw":264,"nd":265,"Ġm":266,"re":267,"Ġb":268,"on":269,"âĢ":270,"ĠI":271,"Ġl":272,"ing":273,"Ġc":274,"âĢĻ":275,"Ġd":276,"ll":277,"Ġy":278,"Ġf":279,"ve":280,"it":281,"ow":282,"ha":283,"Ġyou":284,"is":285,"Ġg":286,"or":287,"ĠA":288,"es":289,"er":290,"Ġto":291,"ed":292,"om":293,"an":294,"ar":295,"Ġn":296,"Ġhe":297,"Ġo":298,"ĠT":299,"Ġin":300,"Ġand":301,"Ġh":302,"ĠAnd":303,"Ġp":304,"Ġmy":305,"Ġon":306,"en":307,"Ġof":308,"at":309,"et":310,"ay":311,",,":312,"Ġme":313,"le":314,"Ġha":315,"ĠW":316,"ot":317,"Ġr":318,"oo":319,"hat":320,"st":321,"ĠS":322,"ld":323,"ck":324,"gh":325,"Ġit":326,"Ġbe":327,"ĠThe":328,"am":329,"own":330,"Ġe":331,"ir":332,"Ġth":333,"id":334,"Ġst":335,"Ġis":336,"ver":337,"as":338,"Ġk":339,"Ġba":340,"ee":341,"ea":342,"ĠH":343,"ĠO":344,"Ġu":345,"Ġyour":346,"ove":347,"ut":348,"Âł":349,"ĠB":350,"Ġdown":351,"ome":352,"Ġthat":353,"ght":354,"ith":355,"se":356,"Ġwe":357,"Ġher":358,"Ġfor":359,"ill":360,"ĠY":361,"Ġli":362,"ke":363,"ad":364,"Ġall":365,"ong":366,"ĠL":367,"im":368,"ĠM":369,"al":370,"one":371,"Ġla":372,"by":373,"ain":374,"un":375,"ur":376,"out":377,"all":378,"Ġshe":379,"Ġkn":380,"ight":381,"ce":382,"ust":383,"Ġwas":384,"Ġlove":385,"ly":386,"Ġfr":387,"itt":388,"ĠC":389,"Ġup":390,"Ġre":391,",,,,":392,"il":393,"ĠJ":394,"ch":395,"Ġwith":396,"ind":397,"Ġbaby":398,"ho":399,",\\":400,"hi":401,"Ġhis":402,"ell":403,"ĠD":404,"hen":405,"ÂłÂł":406,"rou":407,"Ġgo":408,"Ġare":409,"ĠYou":410,"Ġman":411,"Ġne":412,"ent":413,"Ġj":414,"Ġsay":415,"Ġbl":416,"ry":417,"Ġmo":418,"ittle":419,"here":420,"ĠF":421,"Ġknow":422,"Ġcom":423,"Ġlittle":424,"Ġno":425,"ra":426,"Ġfrom":427,"ĠG":428,"amp":429,"ie":430,"Ġan":431,"Ġdo":432,"ear":433,"if":434,"hing":435,"od":436,"Ġat":437,"ant":438,"very":439,"ter":440,"Ġnot":441,"Ġlong":442,"Ġcome":443,"Ġsa":444,"Ġro":445,"Ġthey":446,"ĠâĢ":447,"ro":448,"?\\":449,"her":450,"Ġnow":451,"Ġout":452,"Ġcan":453,"ood":454,"na":455,"Ġ&":456,"el":457,"Ġas":458,"eep":459,"Ġgot":460,"Ġhand":461,"ĠHe":462,"ire":463,"Ġwill":464,"Ġdon":465,"Ġso":466,"ook":467,"eah":468,"be":469,"our":470,"art":471,"Ġsp":472,"Ġthis":473,"us":474,"Ġchi":475,"ri":476,"red":477,"Ġam":478,"ack":479,"Ġwor":480,"ĠIt":481,"Ġchild":482,"ĠBut":483,"ĠE":484,"Ġthere":485,"nt":486,"ers":487,"Ġsays":488,"pp":489,"row":490,"ion":491,"ss":492,"Ġbr":493,"way":494,"ĠShe":495,"ame":496,"um":497,"ould":498,"ĠN":499,"ling":500,"ess":501,"ide":502,"ime":503,"ning":504,"Ġhere":505,"Ġjust":506,"Ġsh":507,"And":508,"The":509,"nder":510,"ard":511,"ake":512,"Ġevery":513,"Ġget":514,"Ġlike":515,"ct":516,"âĢĿ":517,"Ġfl":518,"irl":519,"ge":520,"Ġfire":521,"ist":522,"ath":523,"ep":524,"Ġho":525,"Ġtime":526,"Ġwhat":527,"ĠP":528,"Ġsee":529,"Ġgirl":530,"Ġone":531,"oop":532,"round":533,"Ġcomes":534,"ast":535,"Ġv":536,"Ġab":537,"mm":538,"Ġnight":539,"Ġmore":540,"ink":541,"Ġsu":542,"and":543,"ul":544,"Ġtheir":545,"Ġco":546,"Ġby":547,"Ġdoop":548,"Ġhave":549,".\\":550,"Ġ(":551,"Ġbut":552,"Ġhad":553,"Ġwant":554,"Ġback":555,")\\":556,"ĠWe":557,"ĠWith":558,"ĠâĢľ":559,"ak":560,"ound":561,"Ġtoo":562,"Ġey":563,"ive":564,"Ġain":565,"ord":566,"ars":567,"Ġsaid":568,"ĠR":569,"Ġaway":570,"Ġcl":571,"ĠThat":572,"urn":573,"Ġlo":574,"Ġsome":575,"ig":576,"onna":577,"ree":578,"Ġpl":579,"to":580,"Ġca":581,"ĠThey":582,"Ġgonna":583,"rough":584,"Ġgood":585,"ody":586,"abe":587,"ĠFor":588,"Ġeyes":589,"Ġwho":590,"Ġdre":591,"ic":592,"Ġlea":593,"Ġcall":594,"ĠWhen":595,"hed":596,"Ġpo":597,"You":598,"ĠIn":599,"alk":600,"Ġlook":601,"ĠAll":602,"est":603,"ave":604,"his":605,"qu":606,"Ġdid":607,"ore":608,"Ġag":609,"ĠSt":610,"Ġbeen":611,"ĠThere":612,"Ġthing":613,"ĠBabe":614,"âĢĿ\\":615,"ĠU":616,"Ġhow":617,"ĠYeah":618,"ef":619,"lf":620,"Ġsha":621,"Ġday":622,"ang":623,"Ġinto":624,"ap":625,"etter":626,"ick":627,"ice":628,"other":629,"ĠJo":630,"Ġsk":631,"Ġwat":632,"Ġthrough":633,"Ġtr":634,"Ġal":635,"Ġwind":636,"Ġwhen":637,"reat":638,"Ġblack":639,"ace":640,"uck":641,"Ġaround":642,"Ġworld":643,"Ġagain":644,"ag":645,"ouse":646,"Ġrun":647,",,,,,,,,":648,"ies":649,"ure":650,"Ġour":651,"iss":652,"omet":653,"ĠTo":654,"Ġpr":655,"ĠOn":656,"ĠMy":657,"ĠJust":658,"Ġneed":659,"ĠGod":660,"ite":661,"ets":662,"Ġhair":663,"Ġhands":664,"Ġabout":665,"me":666,"Ġse":667,"Ġgone":668,"Ġhead":669,"Ġwere":670,"body":671,"ms":672,"ng":673,"Ġsc":674,"Ġbo":675,"leep":676,"ĠOh":677,"Ġmoon":678,"Ġfee":679,"eet":680,"up":681,"ving":682,"Ġsw":683,"Ġwo":684,"Ġwent":685,"orn":686,"Ġheart":687,"ull":688,"ah":689,"man":690,"ps":691,"Ġsun":692,"ĠLord":693,"ff":694,"use":695,"vil":696,"Ġsl":697,"Ġcr":698,"ĠWho":699,"mb":700,"ue":701,"ĠK":702,"Ġthen":703,"Ġde":704,"ark":705,"Ġrain":706,"Ġnever":707,"Ġdream":708,"ĠSo":709,"ine":710,"Ġsm":711,"Ġwalk":712,"ren":713,"Ġbetter":714,"ĠWell":715,"Ġend":716,"Ġroad":717,"ross":718,"Ġturn":719,"Ġthem":720,"Ġthink":721,"Ġstre":722,"Ġany":723,"Ġleave":724,"fe":725,"Ġsleep":726,"Ġwh":727,"Ġmove":728,"Ġhar":729,"Ġupon":730,"ol":731,"op":732,"Ġsomet":733,"Ġcar":734,"Ġcould":735,"Ġdr":736,"self":737,"ÂłÂłÂłÂł":738,"ears":739,"ble":740,"ey":741,"Ġar":742,"âĢ¨":743,"She":744,"ĠAs":745,"ven":746,"Ġgive":747,"Ġkeep":748,"ĠLa":749,"oney":750,"ife":751,"led":752,"pe":753,"ub":754,"Ġcha":755,"ows":756,"Ġold":757,"Ġover":758,"ally":759,"Ġchildren":760,"te":761,"ty":762,"ud":763,"Ġwhere":764,"Ġwould":765,"Ġhouse":766,"ĠWhere":767,"Ġstars":768,"Ġflo":769,"Ġsor":770,"Ġlet":771,"Ġcame":772,"Ġgl":773,"Ġname":774,"Ġhim":775,"Ġnothing":776,"Ġcare":777,"Ġfeel":778,"sI":779,"th":780,"Ġtw":781,"ous":782,"Ġwon":783,"Ġmor":784,"Ġlight":785,"Ġnew":786,"iend":787,"Ġsomething":788,"Ġif":789,"Ġqu":790,"Ġsea":791,"ried":792,"Ġsky":793,"ma":794,"now":795,"ock":796,"Ġmad":797,"Ġbre":798,"Ġfind":799,"ering":800,"Ġhome":801,"ate":802,"Ġround":803,"Ġbea":804,"anted":805,"pped":806,"eft":807,"Ġhard":808,"igh":809,"ose":810,"ta":811,"ug":812,"Ġac":813,"Ġlay":814,"Ġleft":815,"Ġyeah":816,"Ġgun":817,"ary":818,"Ġits":819,"ead":820,"ÂłĊ":821,"ĠJoe":822,"ait":823,"ause":824,"Ġtre":825,"Ġtown":826,"Ġwr":827,"Ġwom":828,"Ġdear":829,"ass":830,"bye":831,"Ġnowhere":832,"ĠNow":833,"les":834,"ting":835,"thing":836,"Ġsong":837,"Ġway":838,"Ġfree":839,"han":840,"ise":841,"Ġpre":842,"Ġgoes":843,"Ġdoor":844,"??":845,"eop":846,"Ġmust":847,"inging":848,"Ġcry":849,"Ġcra":850,"Ġfall":851,"ird":852,"Ġstand":853,"Ġfriend":854,"ĠYour":855,"Well":856,"ful":857,"Ġbur":858,"Ġdeep":859,"Ġheat":860,"Ġright":861,"ĠDown":862,"Ġblood":863,"Ġbeaut":864,"eople":865,"ac":866,"ail":867,"ild":868,"os":869,"Ġsnow":870,"Ġmake":871,"Ġdead":872,"ity":873,"Ġhid":874,"Ġpain":875,"Ġex":876,"Ġever":877,"Ġthou":878,"ĠHer":879,"Ġlive":880,"ĠMam":881,"Ġhold":882,"Ġmorning":883,"AN":884,"Ġwife":885,"ĠTup":886,"ation":887,"Ġbad":888,"ĠDo":889,"Ġword":890,"ĠTupel":891,"Ġtell":892,"Ġdie":893,"Ġyr":894,"ĠThis":895,",,,\\":896,"Ġhas":897,"Ġunder":898,"Ġwhite":899,"Ġsorry":900,"ĠTupelo":901,"ci":902,"ied":903,"Ġdark":904,"Ġus":905,"eeping":906,"ĠEvery":907,"akes":908,"Ġgoodbye":909,"Ġtrain":910,"Ġwonder":911,"Ġarms":912,"Ġfloor":913,"Ġbed":914,"ĠIf":915,"Ġfo":916,"Ġfull":917,"ene":918,"Ġoff":919,"cked":920,"Ġstill":921,"Ġkiss":922,"Ġbabe":923,"Ġlife":924,"aiting":925,"av":926,"aw":927,"uff":928,"hes":929,"Ġwhi":930,"Ġwave":931,"ons":932,"Ġgr":933,"Ġgu":934,"Ġgre":935,"ather":936,"Ġhang":937,"Ġri":938,"Ġask":939,"ntil":940,"Ġcold":941,"Ġshad":942,"Ġpray":943,"Ġacross":944,"ew":945,"ike":946,"ness":947,"ins":948,"Ġbath":949,"Ġbig":950,"ory":951,"ĠTh":952,"Ġstr":953,"ĠOf":954,"Ġun":955,"Ġwell":956,"itting":957,"iful":958,"Ġlover":959,"Ġthings":960,"NA":961,"ON":962,"There":963,"ip":964,"lie":965,"Ġtake":966,"anc":967,"Ġhear":968,"ĠWanted":969,"Ġgotta":970,"Ġwater":971,"Ġwoman":972,"Ġbeautiful":973,"ĠMamma":974,"He":975,"la":976,"less":977,"ts":978,"Ġmother":979,"Ġbird":980,"Ġface":981,"Ġground":982,"orrow":983,"ating":984,"Ġread":985,"Ġreally":986,"ĠJan":987,"Ġgoing":988,"Ġbrother":989,"umb":990,"ump":991,"arden":992,"Ġneeds":993,"udd":994,"Ġnews":995,"Ġheathen":996,"ab":997,"ny":998,"ses":999,"und":1000,"ying":1001,"Ġtry":1002,"Ġtree":1003,"Ġle":1004,"ings":1005,"Ġfly":1006,"orm":1007,"Ġeven":1008,"Ġlau":1009,"Ġreme":1010,"Ġsaw":1011,"Ġroom":1012,"ĠHey":1013,"nto":1014,"Ġpoor":1015,"mber":1016,"Ġhiding":1017,"We":1018,"ach":1019,"oice":1020,"tub":1021,"Ġtears":1022,"Ġsho":1023,"Ġmind":1024,"Ġcon":1025,"ish":1026,"Ġgarden":1027,"anna":1028,"Ġlie":1029,"ĠGo":1030,"Ġroll":1031,"ĠNo":1032,"Ġeverything":1033,"Ġbathtub":1034,"EAN":1035,"air":1036,"ched":1037,"hn":1038,"pt":1039,"ther":1040,"Ġor":1041,"ount":1042,"esus":1043,"ote":1044,"ott":1045,",,,,\\":1046,"ĠJack":1047,"Ġcomp":1048,"Ġcoming":1049,"Ġtook":1050,"Ġplace":1051,"Ġshadow":1052,"When":1053,"aid":1054,"den":1055,"end":1056,"oy":1057,"Ġthan":1058,"Ġdone":1059,"Ġfing":1060,"Ġpart":1061,"leas":1062,"Ġhamm":1063,"ool":1064,"Ġbef":1065,"Ġbell":1066,"Ġthose":1067,"Ġyourself":1068,"Ġreal":1069,"ĠDEAN":1070,"Ġamong":1071,"Ġeverybody":1072,"mmmm":1073,"Ġwanted":1074,"Ġremember":1075,"ĠDEANNA":1076,"Yeah":1077,"are":1078,"ered":1079,"side":1080,"uch":1081,"Ġside":1082,"Ġwild":1083,"Ġweeping":1084,"Ġbreat":1085,"ĠIs":1086,"ĠInto":1087,"arling":1088,"Ġhigh":1089,"Ġonly":1090,"Ġmeet":1091,"Ġris":1092,"cks":1093,"eak":1094,"ĠLee":1095,"ppy":1096,"aking":1097,"ĠUntil":1098,"ĠJohn":1099,"Ġwatch":1100,"Ġtrees":1101,"It":1102,"hind":1103,"ile":1104,"pen":1105,"rom":1106,"ues":1107,"Ġair":1108,"Ġsil":1109,"Ġshi":1110,"Ġbit":1111,"Ġgrow":1112,"Ġgreat":1113,"ery":1114,"ooo":1115,"ĠThen":1116,"ĠLike":1117,"ĠMary":1118,"Ġbright":1119,"They":1120,"Ġstreet":1121,"Ġmade":1122,"Ġriver":1123,"Ġlaugh":1124,"Ġbefore":1125,"Now":1126,"OR":1127,"ared":1128,"day":1129,"gs":1130,"ger":1131,"inning":1132,"Ġthese":1133,"Ġmoney":1134,"Ġlone":1135,"har":1136,"Ġgat":1137,"ort":1138,"ĠAl":1139,"ans":1140,"Ġopen":1141,"Ġbehind":1142,"Ġkind":1143,"Ġforg":1144,"outh":1145,"ĠDe":1146,"ĠâĢĺ":1147,"isten":1148,"Ġsucked":1149,"apa":1150,"Ġalone":1151,"Ġdeath":1152,"ÂłÂłÂłÂłÂłÂłÂłÂł":1153,"Ġbreath":1154,"Ġwrong":1155,"Ġthought":1156,"IN":1157,"hone":1158,"low":1159,"Ġtra":1160,"Ġsat":1161,"Ġmat":1162,"Ġbu":1163,"Ġbody":1164,"Ġborn":1165,"Ġput":1166,"Ġpast":1167,"Ġpeople":1168,"Ġem":1169,"Ġstay":1170,"ĠâĢ¨":1171,"Ġvoice":1172,"ĠOne":1173,"Ġcru":1174,"Ġwhich":1175,"Hey":1176,"Just":1177,"een":1178,"let":1179,"Ġtou":1180,"Ġsou":1181,"Ġwaiting":1182,"Ġmid":1183,"Ġmuch":1184,"Ġble":1185,"Ġche":1186,"Ġcle":1187,"Ġcur":1188,"Ġfuck":1189,"Ġfeet":1190,"eside":1191,"Ġheard":1192,"Ġother":1193,"Ġhor":1194,"enry":1195,"ĠSaid":1196,"ĠHenry":1197,"ĠLook":1198,"Ġland":1199,"ĠCome":1200,"ĠJesus":1201,"Ġblind":1202,"Ġdress":1203,"ĠStag":1204,"Ġstreets":1205,"In":1206,"On":1207,"ec":1208,"king":1209,"tc":1210,"the":1211,"ward":1212,"ze":1213,"ĠV":1214,"Ġvery":1215,"Ġte":1216,"Ġmakes":1217,"Ġbeside":1218,"Ġlow":1219,"Ġcrow":1220,"Ġdarling":1221,"ves":1222,"owers":1223,"isa":1224,"Ġra":1225,"Ġbee":1226,"Ġstart":1227,"Ġmany":1228,"Ġknows":1229,"ĠUp":1230,"Ġwindow":1231,"Ġboy":1232,"Ġsweet":1233,"Ġstanding":1234,"Ġwords":1235,"Ġlonely":1236,"Ġsoul":1237,",)\\":1238,"For":1239,"ees":1240,"ft":1241,"iv":1242,"ment":1243,"inn":1244,"inter":1245,"Ġsad":1246,"Ġwake":1247,"Ġwhis":1248,"ream":1249,"âĢ¦":1250,"Ġcat":1251,"Ġfell":1252,"Ġfore":1253,"Ġgim":1254,"Ġgra":1255,"Ġheav":1256,"Ġoh":1257,"Ġpus":1258,"Ġpass":1259,"irst":1260,"Ġstuff":1261,"eace":1262,"Ġloved":1263,"ching":1264,"enty":1265,"ĠâĢĵ":1266,"Ġgetting":1267,"Ġcalled":1268,"Ġslow":1269,"Ġmoves":1270,"Ġwonderful":1271,"eneath":1272,"Ġfingers":1273,"Ġrising":1274,"Ġgates":1275,"Ġheavy":1276,"AL":1277,"Come":1278,"So":1279,"bs":1280,"gar":1281,"hy":1282,"jah":1283,"ken":1284,"mon":1285,"ujah":1286,"Ġapp":1287,"Ġwanna":1288,"Ġbar":1289,"Ġbook":1290,"ones":1291,"Ġlisten":1292,"Ġcried":1293,"Ġdes":1294,"owed":1295,"Ġhey":1296,"ence":1297,"Ġhappy":1298,"Ġbeg":1299,"Ġstorm":1300,"ĠHoney":1301,"ĠMe":1302,"allel":1303,"Ġlovely":1304,"rap":1305,"ters":1306,"Ġshould":1307,"Ġabove":1308,"Ġlooking":1309,"Ġprote":1310,"Ġdreams":1311,"Ġturned":1312,"Ġguess":1313,"Ġgreen":1314,"Ġhanging":1315,"ĠJane":1316,"lease":1317,"ĠStagger":1318,"allelujah":1319,"Ġprotect":1320,"able":1321,"cy":1322,"ian":1323,"more":1324,"Ġen":1325,"Ġtill":1326,"Ġaf":1327,"Ġsit":1328,"Ġsitting":1329,"Ġwinter":1330,"Ġbest":1331,"Ġlying":1332,"Ġch":1333,"Ġcorn":1334,"ĠTO":1335,"ĠWhi":1336,"ĠSome":1337,"Ġbelie":1338,"Ġkill":1339,"ĠBl":1340,"ĠBell":1341,"imp":1342,"alley":1343,"ĠCrow":1344,"ĠCause":1345,"Ġret":1346,"Ġwithout":1347,"ĠFinn":1348,"ield":1349,"Ġdoes":1350,"Ġcann":1351,"ways":1352,"ĠPapa":1353,"Ġgirls":1354,"Ġwants":1355,"Ġplay":1356,"Ġlooked":1357,"Ġdrink":1358,"Ġcraw":1359,"Ġlives":1360,"Ġkissed":1361,"Ġready":1362,"Ġbreathe":1363,"Ġtouch":1364,"Ġgimme":1365,"TH":1366,"act":1367,"age":1368,"der":1369,"dom":1370,"ever":1371,"hr":1372,"ia":1373,"ib":1374,"ix":1375,"lp":1376,"pl":1377,"tain":1378,"where":1379,"Ġent":1380,"Ġsqu":1381,"ough":1382,"Ġmay":1383,"Ġbet":1384,"Ġlate":1385,"âĢĻ\\":1386,"Ġfar":1387,"Ġfist":1388,"ised":1389,"ern":1390,"arry":1391,"Ġna":1392,"Ġones":1393,"oooo":1394,"ashed":1395,"Ġking":1396,"ĠHow":1397,"ĠHis":1398,"ĠLA":1399,"ĠLove":1400,"imes":1401,"Ġknees":1402,"host":1403,"ĠDon":1404,"Ġblues":1405,"ĠFrom":1406,"Ġcomin":1407,"Ġsail":1408,"elt":1409,"Ġspeak":1410,"ĠEvil":1411,"ĠNot":1412,"Ġsure":1413,"Ġsugar":1414,"????":1415,"Ġfalling":1416,"unday":1417,"Ġshoes":1418,"Ġcruz":1419,"âĢ¦\\":1420,"Ġbelieve":1421,"Cause":1422,"Who":1423,"aa":1424,"og":1425,"ror":1426,"ince":1427,"Ġsick":1428,"Ġwar":1429,"Ġwall":1430,"Ġmight":1431,"Ġmil":1432,"Ġmouth":1433,"Ġbro":1434,"Ġlets":1435,"Ġcreat":1436,"Ġdig":1437,"Ġyear":1438,"Ġyears":1439,"Ġfun":1440,"Ġfif":1441,"Ġfound":1442,"ĠAn":1443,"edge":1444,"any":1445,"Ġhell":1446,"Ġhelp":1447,"ats":1448,"Ġhall":1449,"oth":1450,"Ġrise":1451,"ĠSp":1452,"ĠSee":1453,"ĠSorrow":1454,"ĠHallelujah":1455,"ĠBr":1456,"key":1457,"add":1458,"Ġlast":1459,"ĠChar":1460,"Ġred":1461,"Ġblue":1462,"Ġshot":1463,"epth":1464,"Ġhole":1465,"Ġhope":1466,"Ġshall":1467,"Ġdays":1468,"Ġalong":1469,",,,,,,,,,,,,,,,,":1470,"ures":1471,"Ġfeeling":1472,"ĠKeep":1473,"Ġtwo":1474,"Ġthough":1475,"Ġmidn":1476,"ĠBellows":1477,"AIN":1478,"HE":1479,"Oh":1480,"Yes":1481,"bo":1482,"bed":1483,"ged":1484,"nock":1485,"ond":1486,"phe":1487,"ĠQ":1488,"Ġedge":1489,"Ġtin":1490,"Ġtalk":1491,"ines":1492,"Ġson":1493,"Ġsing":1494,"Ġmon":1495,"Ġmer":1496,"Ġbeneath":1497,"âĢľ":1498,"Ġdry":1499,"Ġdef":1500,"Ġdied":1501,"Ġfear":1502,"Ġfield":1503,"Ġyoung":1504,"Ġghost":1505,"ĠAh":1506,"Ġtold":1507,"ĠTHE":1508,"Ġhot":1509,"Ġhum":1510,"Ġonce":1511,"Ġstar":1512,"ĠOr":1513,"ĠYes":1514,"Ġlips":1515,"ĠMoo":1516,"als":1517,"ung":1518,"alling":1519,"ĠCity":1520,"raight":1521,"pping":1522,"ions":1523,"Ġseems":1524,"aked":1525,"Ġplan":1526,"Ġtrue":1527,"Ġanymore":1528,"teen":1529,"uddy":1530,"Ġemp":1531,"thel":1532,"Ġafter":1533,"Ġreturn":1534,"Ġbetw":1535,"Ġmidnight":1536,"AR":1537,"But":1538,"IT":1539,"PL":1540,"band":1541,"hor":1542,"iet":1543,"lo":1544,"mer":1545,"med":1546,"ned":1547,"over":1548,"sy":1549,"ted":1550,"ught":1551,"ured":1552,"wo":1553,"xt":1554,"Ġsur":1555,"ress":1556,"Ġburn":1557,"Ġcast":1558,"Ġcross":1559,"Ġcount":1560,"Ġda":1561,"Ġdri":1562,"Ġyes":1563,"ĠAt":1564,"ĠAre":1565,"ank":1566,"ange":1567,"arly":1568,"Ġhill":1569,"Ġpro":1570,"Ġpeace":1571,"Ġplease":1572,"ĠSw":1573,"ĠSay":1574,"ĠSunday":1575,"asy":1576,"ĠHo":1577,"illy":1578,"ĠMars":1579,"Ġjump":1580,"ĠHere":1581,"ush":1582,"ĠEthel":1583,"ĠPeople":1584,"Ġvis":1585,"Ġclim":1586,"Ġsomeone":1587,"ĠUP":1588,"Ġskin":1589,"Ġalways":1590,"Ġagainst":1591,"Ġsend":1592,"Ġscream":1593,"Ġglass":1594,"Ġquiet":1595,"Ġbreast":1596,"Ġtremb":1597,"cious":1598,"Ġfoll":1599,"Ġasked":1600,"Ġhammer":1601,"Ġbuy":1602,"ALL":1603,"ĠWhile":1604,"ĠAnna":1605,"Ġbetween":1606,"If":1607,"US":1608,"UTH":1609,"XPL":1610,"ZAR":1611,"bour":1612,"cre":1613,"oi":1614,"ost":1615,"sp":1616,"sw":1617,"Ġve":1618,"Ġtrou":1619,"Ġtri":1620,"Ġtaking":1621,"ined":1622,"Ġset":1623,"Ġsound":1624,"Ġwide":1625,"Ġmoo":1626,"Ġmiss":1627,"rew":1628,"reen":1629,"Ġbra":1630,"Ġbones":1631,"Ġcity":1632,"Ġdis":1633,"lling":1634,"Ġyell":1635,"Ġfather":1636,"Ġfirst":1637,"Ġfelt":1638,"ĠAUTH":1639,"Ġheld":1640,"Ġheal":1641,"Ġhur":1642,"Ġhus":1643,"Ġhide":1644,"Ġpist":1645,"ator":1646,"lect":1647,"leah":1648,"ĠWo":1649,"ĠWas":1650,"ĠWaiting":1651,"Ġrid":1652,"ames":1653,"Ġeat":1654,"Ġeach":1655,"irty":1656,"Ġkid":1657,"ĠBudd":1658,"Ġknew":1659,"ĠCALL":1660,"Ġgold":1661,"Ġblow":1662,"ĠGet":1663,"Ġrock":1664,"els":1665,"Ġspinning":1666,"ĠEXPL":1667,"Ġbring":1668,"Ġgets":1669,"Ġhop":1670,"Ġclos":1671,"Ġlost":1672,"Ġsomebody":1673,"Ġcause":1674,"Ġwhoa":1675,"Ġdidn":1676,"ĠUnder":1677,"anger":1678,"angle":1679,"Ġrunning":1680,"Ġscared":1681,"Ġmoonl":1682,"Ġslave":1683,"ĠKing":1684,"Ġdevil":1685,"Ġsmile":1686,"Ġwalked":1687,"Ġleaves":1688,"Ġsleeping":1689,"Ġtwenty":1690,"Ġfriends":1691,"aces":1692,"awn":1693,"Ġtele":1694,"Ġcannot":1695,"hrist":1696,"Ġentered":1697,"ĠLAZAR":1698,"Ġfifteen":1699,"Ġempty":1700,"ĠUPON":1701,"Ġtrembling":1702,"ĠAnnaleah":1703,"ĠAUTHOR":1704,"Ġhusband":1705,"Ġpistol":1706,"ĠEXPLAIN":1707,"ĠLAZARUS":1708,"My":1709,"VE":1710,"io":1711,"ily":1712,"ious":1713,"ten":1714,"tty":1715,"zy":1716,"zen":1717,"Ġtried":1718,"Ġap":1719,"Ġser":1720,"Ġsear":1721,"ought":1722,"Ġwis":1723,"Ġmom":1724,"Ġce":1725,"Ġdanc":1726,"Ġfur":1727,"ved":1728,"its":1729,"ison":1730,"ert":1731,"ĠTV":1732,"Ġinside":1733,"Ġhour":1734,"Ġphone":1735,"Ġmean":1736,"ĠWon":1737,"Ġrag":1738,"ĠSet":1739,"Ġbelow":1740,"Ġthro":1741,"Ġstri":1742,"ĠMon":1743,"urning":1744,"Ġknock":1745,"ĠCom":1746,"Ġrem":1747,",,,,,\\":1748,"Ġwithin":1749,"ĠFar":1750,"Ġnobody":1751,"raw":1752,"Ġdont":1753,"Ġsoft":1754,"ĠEl":1755,"Ġeveryone":1756,"Ġflowers":1757,"Ġnights":1758,"Ġcoll":1759,"Ġeye":1760,"Ġclot":1761,"aven":1762,"Ġseen":1763,"Ġsorrow":1764,"Ġprecious":1765,"Ġpretty":1766,"Ġburden":1767,"ails":1768,"cial":1769,"ĠThrough":1770,"Ġtrying":1771,"ountain":1772,"Ġsilver":1773,"Ġbroken":1774,"addy":1775,"ĠCharge":1776,"Ġtiny":1777,"Ġfields":1778,"Ġtelep":1779,"Ġmoment":1780,"Do":1781,"Not":1782,"This":1783,"ale":1784,"cus":1785,"ecial":1786,"hh":1787,"lies":1788,"mory":1789,"oor":1790,"pet":1791,"pent":1792,"ray":1793,"son":1794,"heart":1795,"Ġton":1796,"Ġtun":1797,"Ġad":1798,"Ġact":1799,"Ġwooo":1800,"Ġmen":1801,"Ġmet":1802,"Ġmir":1803,"Ġbott":1804,"âĢĵ":1805,"Ġcling":1806,"Ġdist":1807,"ishing":1808,"ĠTake":1809,"Ġinv":1810,"Ġpen":1811,"Ġpure":1812,"Ġmyst":1813,"Ġringing":1814,"ĠSomet":1815,"ĠSend":1816,"Ġbec":1817,"amn":1818,"ash":1819,"ĠHim":1820,"ĠOur":1821,"uth":1822,"ĠBoy":1823,"ĠLet":1824,"ĠMr":1825,"Ġlaw":1826,"unk":1827,"Ġknee":1828,"itten":1829,"ĠCan":1830,"ĠChrist":1831,"Ġrest":1832,"Ġang":1833,"Ġdoing":1834,"Ġspecial":1835,"Ġcoat":1836,"ĠStill":1837,"Ġwaters":1838,"Ġsmall":1839,"Ġwalking":1840,"Ġwhy":1841,"ugar":1842,"ations":1843,"Ġwaves":1844,"Ġstrange":1845,"Here":1846,"undred":1847,"ĠGoing":1848,"Ġcompany":1849,"Ġbells":1850,"Ġforgive":1851,"ÂłÂłÂłÂłÂłÂłÂłÂłÂłÂłÂłÂłÂłÂłÂłÂł":1852,"Ġmatters":1853,"lete":1854,"Ġhorses":1855,"Ġraised":1856,"Ġforever":1857,"Ġpassed":1858,"Ġslowly":1859,"pheus":1860,"ĠSweet":1861,"Ġyellow":1862,"Ġtelephone":1863,",âĢĿ\\":1864,";\\":1865,"Chor":1866,"IX":1867,"Malley":1868,"OL":1869,"Say":1870,"Wanted":1871,"bb":1872,"ced":1873,"fuck":1874,"ging":1875,"ik":1876,"ict":1877,"ks":1878,"my":1879,"morrow":1880,"oss":1881,"onder":1882,"per":1883,"uge":1884,"zed":1885,"Ġ1":1886,"Ġown":1887,"Ġimp":1888,"Ġtow":1889,"Ġter":1890,"Ġteet":1891,"Ġast":1892,"oud":1893,"Ġwit":1894,"Ġwea":1895,"Ġwire":1896,"Ġmis":1897,"Ġmaking":1898,"Ġbang":1899,"Ġbull":1900,"Ġlit":1901,"Ġlot":1902,"Ġlam":1903,"Ġcour":1904,"Ġcup":1905,"Ġdirty":1906,"Ġdawn":1907,"Ġfe":1908,"Ġfin":1909,"Ġfill":1910,"vent":1911,"ital":1912,"ition":1913,"ories":1914,"ĠAb":1915,"Ġtomorrow":1916,"omb":1917,"omin":1918,"arrow":1919,"Ġhung":1920,"att":1921,"Ġhalf":1922,"ĠWE":1923,"Ġring":1924,"Ġrings":1925,"ĠSitting":1926,"amm":1927,"aming":1928,"Ġel":1929,"irc":1930,"Ġthrow":1931,"Ġthrew":1932,"ider":1933,"Ġste":1934,"Ġstep":1935,"Ġstick":1936,"Ġstair":1937,"overed":1938,"ĠBec":1939,"ade":1940,"Ġknife":1941,"Ġloves":1942,"ĠCarry":1943,"Ġhist":1944,"Ġmoving":1945,"rag":1946,"rapped":1947,"ĠGot":1948,"Ġsand":1949,"rop":1950,"room":1951,"rolling":1952,"Ġoutside":1953,"Ġsoon":1954,"Ġspl":1955,"Ġspir":1956,"nted":1957,"Ġbrid":1958,"Ġshut":1959,"Ġshine":1960,"ists":1961,"Ġsuch":1962,"aken":1963,"ĠRain":1964,"Ġcloud":1965,"ign":1966,"Ġcapt":1967,"Ġpoin":1968,"ĠAllah":1969,"lfman":1970,",,,,,,,,\\":1971,"Ġseas":1972,"Ġboat":1973,"ĠKnock":1974,"Ġsmo":1975,"Ġsmil":1976,"Ġsmell":1977,"Ġcarry":1978,"Ġchang":1979,"Ġguns":1980,"Ġwomen":1981,"Ġexact":1982,"Ġgrew":1983,"ĠJanie":1984,"Ġlean":1985,"otten":1986,"Ġhammering":1987,"Ġlaughing":1988,"ĠDevil":1989,"Ġbreathless":1990,"Ġbleed":1991,"Ġfucking":1992,"Ġgrave":1993,"Ġmaybe":1994,"Ġmilk":1995,"ĠBring":1996,"ĠQue":1997,"overman":1998,"Ġfollowed":1999,"Ġtrouble":2000,"ĠBuddha":2001,"Ġthroat":2002,"Nothing":2003,"Ġtonight":2004,"Chorus":2005,"Ġteeth":2006,"ĠKnockin":2007,"Ġexactly":2008,",âĢĿ":2009,"?âĢĿ\\":2010,"Don":2011,"IS":2012,"Lay":2013,"That":2014,"Then":2015,"cal":2016,"cord":2017,"ect":2018,"ible":2019,"jangle":2020,"kes":2021,"ming":2022,"ob":2023,"oc":2024,"sO":2025,"sS":2026,"sThe":2027,"sYou":2028,"suff":2029,"well":2030,"Ġid":2031,"hey":2032,"Ġtong":2033,"ina":2034,"ining":2035,"Ġaw":2036,"Ġape":2037,"Ġsan":2038,"Ġsen":2039,"Ġthee":2040,"Ġweep":2041,"nded":2042,"Ġma":2043,"Ġmar":2044,"Ġmur":2045,"Ġlear":2046,"ingle":2047,"Ġcou":2048,"Ġcars":2049,"Ġcool":2050,"Ġdia":2051,"Ġdaddy":2052,"lly":2053,"Ġyonder":2054,"itc":2055,"owder":2056,"Ġgown":2057,"ors":2058,"orms":2059,"erman":2060,"ance":2061,"ĠTw":2062,"ĠTill":2063,"ĠTON":2064,"Ġhy":2065,"Ġhit":2066,"Ġhundred":2067,"Ġper":2068,"Ġpale":2069,"Ġpowder":2070,"Ġmyself":2071,"ated":2072,"atur":2073,"atching":2074,",,\\":2075,"ĠWhy":2076,"Ġran":2077,"oose":2078,"Ġevil":2079,"irt":2080,"Ġthous":2081,"ase":2082,"ĠHave":2083,"ĠHamm":2084,"Ġum":2085,"Ġlil":2086,"Ġlies":2087,"ados":2088,"ĠLetter":2089,"unning":2090,"ury":2091,"Ġreach":2092,"hose":2093,"ĠDay":2094,"ĠDepth":2095,"Ġgod":2096,"Ġnext":2097,"Ġjingle":2098,"Ġblame":2099,"ĠFoi":2100,"Ġanvil":2101,"Ġdogs":2102,"Ġrose":2103,"eling":2104,"Ġass":2105,"ourn":2106,"arth":2107,"ries":2108,"ssed":2109,"Ġbringing":2110,"ept":2111,"Ġsuff":2112,"ult":2113,"Ġcops":2114,"Ġcoff":2115,"ĠRef":2116,"Ġclose":2117,"Ġleap":2118,"Ġleaving":2119,"Ġpoison":2120,"ĠStre":2121,"icked":2122,"Ġtruth":2123,"Ġhandsome":2124,"Ġbox":2125,"Ġswear":2126,"Ġwoke":2127,"Ġcrumb":2128,"Ġmoved":2129,"Ġharm":2130,"Ġcarpet":2131,"tered":2132,"Ġglove":2133,"Ġquite":2134,"ighbour":2135,"Ġcrazy":2136,"ĠYourself":2137,"Ġburning":2138,"Ġbeauty":2139,"Ġexpl":2140,"Ġwhile":2141,"Ġmotherfuck":2142,"Ġbirds":2143,"Ġrolling":2144,"Ġcomplete":2145,"Ġamongst":2146,"hard":2147,"ĠAlice":2148,"ĠDeanna":2149,"Ġblew":2150,"Ġclean":2151,"Ġclear":2152,"Ġcurtain":2153,"Ġcrowd":2154,"Ġcrawl":2155,"ograp":2156,"Ġhello":2157,"ITE":2158,"lectri":2159,"Ġmoonlight":2160,"Ġpistols":2161,"Ġwisdom":2162,"ĠElisa":2163,"Ġclothes":2164,"Ġmystery":2165,"Ġlamb":2166,"Ġhistory":2167,"suffering":2168,"Ġtongue":2169,"ĠTONITE":2170,"Ġthousand":2171,"ĠHammering":2172,"Ġsuffering":2173,"ĠRefuge":2174,"As":2175,"All":2176,"From":2177,"Get":2178,"IG":2179,"No":2180,"Your":2181,"cher":2182,"cess":2183,"cross":2184,"ches":2185,"flies":2186,"house":2187,"ial":2188,"ips":2189,"ipped":2190,"kay":2191,"mit":2192,"nel":2193,"sing":2194,"sOn":2195,"uh":2196,"under":2197,"vol":2198,"zing":2199,"Ġim":2200,"Ġord":2201,"Ġta":2202,"Ġturning":2203,"Ġtaken":2204,"Ġsix":2205,"oured":2206,"Ġwre":2207,"Ġwet":2208,"Ġwound":2209,"Ġwish":2210,"Ġmill":2211,"Ġmouse":2212,"Ġmine":2213,"rely":2214,"rent":2215,"âĢĶ":2216,"Ġlad":2217,"Ġletter":2218,"Ġcre":2219,"Ġcirc":2220,"Ġdif":2221,"Ġfish":2222,"Ġfair":2223,"Ġfaces":2224,"Ġfountain":2225,"vel":2226,"iting":2227,"ower":2228,"Ġgi":2229,"Ġgall":2230,"ĠAny":2231,"Ġtop":2232,"Ġtoday":2233,"arlet":2234,"Ġnur":2235,"Ġnice":2236,"Ġheap":2237,"Ġokay":2238,"ĠThose":2239,"Ġinf":2240,"Ġph":2241,"Ġpal":2242,"ater":2243,"Ġmemory":2244,"Ġhaving":2245,"ots":2246,"Ġrad":2247,"stand":2248,"ĠSe":2249,"ĠSinging":2250,"ĠSugar":2251,"Ġbeast":2252,"ĠTheir":2253,"Ġeast":2254,"Ġeating":2255,"Ġearth":2256,"iring":2257,"Ġthick":2258,"Ġsto":2259,"Ġstone":2260,"Ġstood":2261,"Ġstory":2262,"eech":2263,"eared":2264,"ĠHard":2265,"Ġunt":2266,"Ġyours":2267,"ĠBe":2268,"ĠBet":2269,"Ġwear":2270,"imals":2271,"ĠMa":2272,"unt":2273,"urs":2274,"Ġref":2275,"Ġrented":2276,",,,,,,,\\":2277,"ilt":2278,"ĠJub":2279,"inderman":2280,"hold":2281,"ĠDIG":2282,"Ġneck":2283,"Ġneighbour":2284,"rying":2285,"hered":2286,"ĠFever":2287,"raise":2288,"ief":2289,"Ġanother":2290,"Ġansw":2291,"Ġanimals":2292,"ift":2293,"ify":2294,"Ġroam":2295,"Ġroses":2296,"oodbye":2297,"ooked":2298,"Ġspent":2299,"Ġspins":2300,"Ġspeech":2301,"Ġworry":2302,"ĠEven":2303,"Ġbrain":2304,"Ġshout":2305,"ards":2306,"ction":2307,"âĢĿ,":2308,"Ġfles":2309,"Ġvalley":2310,"Ġhaven":2311,"ives":2312,"ĠRE":2313,"ĠRight":2314,"Ġwhole":2315,"Ġpol":2316,"Ġpock":2317,"hiseling":2318,"ĠStr":2319,"ĠStraight":2320,"angling":2321,"Ġwinds":2322,"Ġwindows":2323,"ucky":2324,"Ġruns":2325,"Ġswim":2326,"Ġdew":2327,"ferent":2328,"Ġcarn":2329,"Ġdrunk":2330,"udge":2331,"Ġquick":2332,"Ġwrote":2333,"hank":2334,"Ġcracks":2335,"Ġburst":2336,"Ġburied":2337,"ailing":2338,"Ġlived":2339,"Ġprayer":2340,"abin":2341,"Ġlegs":2342,"ilee":2343,"oooh":2344,"Ġkindness":2345,"ING":2346,"Ġmatter":2347,"Ġtender":2348,"Ġwhiskey":2349,"Ġpushing":2350,"Ġpussy":2351,"Ġlistening":2352,"Ġcorner":2353,"Ġplayer":2354,"ibr":2355,"Ġwalls":2356,"Ġcreature":2357,"Ġmonkey":2358,"Ġjumped":2359,"Ġclimbs":2360,"Ġhurt":2361,"Ġkids":2362,"Ġapart":2363,"Ġceil":2364,"Ġdancing":2365,"Ġmirror":2366,"Ġtoward":2367,"Ġwitness":2368,"Ġmisery":2369,"ominable":2370,"Ġmurder":2371,"ĠTwenty":2372,"Ġcoffin":2373,"ĠStreet":2374,"Ġradio":2375,"ĠJubilee":2376,".âĢĿ":2377,"00":2378,"Babe":2379,"IM":2380,"Poor":2381,"ROL":2382,"Sitting":2383,"Th":2384,"Won":2385,"What":2386,"Will":2387,"aving":2388,"apped":2389,"aise":2390,"boy":2391,"ces":2392,"dle":2393,"eld":2394,"fet":2395,"get":2396,"hite":2397,"ier":2398,"joice":2399,"ked":2400,"ls":2401,"lin":2402,"lves":2403,"ne":2404,"ns":2405,"ozen":2406,"pering":2407,"right":2408,"sL":2409,"sence":2410,"tar":2411,"yond":2412,"zz":2413,"Ġ/":2414,"ĠX":2415,"Ġten":2416,"Ġtear":2417,"Ġaut":2418,"Ġage":2419,"Ġsn":2420,"Ġsir":2421,"Ġsince":2422,"Ġwee":2423,"Ġwood":2424,"Ġwine":2425,"Ġwakes":2426,"Ġwings":2427,"Ġmot":2428,"res":2429,"Ġbow":2430,"Ġbuck":2431,"Ġbuddy":2432,"Ġbank":2433,"ona":2434,"ont":2435,"oner":2436,"onishing":2437,"Ġlee":2438,"Ġlump":2439,"Ġcit":2440,"Ġcor":2441,"Ġcand":2442,"Ġcovered":2443,"Ġdug":2444,"Ġdying":2445,"Ġdisa":2446,"Ġdrag":2447,"Ġfat":2448,"Ġfam":2449,"Ġfav":2450,"Ġfool":2451,"vening":2452,"ished":2453,"Ġgut":2454,"Ġgave":2455,"Ġgate":2456,"ĠAr":2457,"oms":2458,"omes":2459,"Ġnest":2460,"Ġheaven":2461,"Ġooooh":2462,"Ġpat":2463,"Ġpay":2464,"Ġpri":2465,"Ġoften":2466,"atch":2467,"eth":2468,"Ġmeas":2469,"Ġhat":2470,"Ġhapp":2471,"ĠWest":2472,"ĠWeeping":2473,"Ġrab":2474,"oof":2475,"ĠSince":2476,"Ġbeating":2477,"Ġbeyond":2478,"Ġele":2479,"Ġevening":2480,"Ġthin":2481,"Ġthree":2482,"Ġthumb":2483,"ided":2484,"Ġstate":2485,"Ġstation":2486,"Ġstraight":2487,"Ġkitten":2488,"ĠHel":2489,"ĠHide":2490,"ĠOut":2491,"Ġuse":2492,"oveling":2493,"ute":2494,"ution":2495,"Ġwears":2496,"Ġwept":2497,"ĠLu":2498,"ĠLong":2499,"ĠLoverman":2500,"ĠMar":2501,"ĠMmmmm":2502,"ĠMuddy":2503,"unch":2504,"urch":2505,"Ġfrozen":2506,"ĠCall":2507,"ĠCalling":2508,"ĠCabin":2509,"Ġrecord":2510,",,,,,,\\":2511,"roud":2512,"Ġnearly":2513,"Ġjoy":2514,"Ġbless":2515,"Ġmost":2516,"Ġcomf":2517,"ĠGra":2518,"Ġanci":2519,"Ġanew":2520,"Ġlonging":2521,"Ġsack":2522,"nake":2523,"ired":2524,"Ġspr":2525,"Ġspun":2526,"acked":2527,"Ġworried":2528,"Ġbrown":2529,"Ġshr":2530,"Ġshow":2531,"Ġshining":2532,"Ġeverywhere":2533,"ctor":2534,"ctify":2535,"Ġflies":2536,"Ġfires":2537,"Ġholes":2538,"ĠPROL":2539,"aster":2540,"Ġvip":2541,"inking":2542,"Ġsuck":2543,"Ġcost":2544,"ĠRic":2545,"Ġloving":2546,"Ġlocal":2547,"Ġsomewhere":2548,"Ġlead":2549,"Ġcalls":2550,"Ġcalling":2551,"estion":2552,"Ġhowl":2553,",,,,,,,,,\\":2554,"Ġsecre":2555,"leeping":2556,"Ġswall":2557,"Ġhearts":2558,"Ġwalks":2559,"Ġanyone":2560,"Ġsometimes":2561,"Ġcarny":2562,"Ġgiven":2563,"Ġchan":2564,"Ġchain":2565,"Ġolder":2566,"Ġfloats":2567,"Ġglad":2568,"Ġlaying":2569,"Ġcrack":2570,"Ġhidden":2571,"Ġdarker":2572,"Ġused":2573,"Ġgrinderman":2574,"Ġguy":2575,"Ġshadows":2576,"ĠNobody":2577,"Ġfinger":2578,"Ġparties":2579,"Ġsilent":2580,"Ġshield":2581,"Ġgrows":2582,"Ġforgotten":2583,"Ġstarted":2584,"Ġboys":2585,"Ġsadly":2586,"Ġforest":2587,"Ġgrab":2588,"Ġchurch":2589,"ĠSomeone":2590,"Ġsquee":2591,"ernatur":2592,"Ġwarning":2593,"Ġmiles":2594,",,,,,,,,,,,,,,,,,,,\\":2595,"Ġsingle":2596,"Ġmercy":2597,"Ġhuman":2598,"Ġplanets":2599,"Ġcountry":2600,"ĠSays":2601,"Ġquietly":2602,"Ġveil":2603,"ĠWolfman":2604,"Ġfurther":2605,"ĠComing":2606,"Ġcollect":2607,"Ġtunnel":2608,"ĠSomething":2609,"ĠSweetheart":2610,"Says":2611,"Ġbullet":2612,"Ġcourse":2613,"Ġfilled":2614,"Ġhungry":2615,"Ġelse":2616,"Ġsteps":2617,"ĠBecause":2618,"Ġspiral":2619,"Ġsanctify":2620,"Ġsense":2621,"Ġexplain":2622,"Ġcompletely":2623,"Ġdifferent":2624,"Ġnurse":2625,"ĠBetty":2626,"Ġanswer":2627,"Ġflesh":2628,"Ġceiling":2629,"gether":2630,"Ġdisapp":2631,"Ġfavour":2632,"ĠHelp":2633,"Ġancient":2634,"ĠPROLIX":2635,"ĠRichard":2636,"/\\":2637,"?âĢĿ":2638,"AVE":2639,"CIS":2640,"Down":2641,"ER":2642,"Every":2643,"Evil":2644,"IR":2645,"Is":2646,"Like":2647,"MON":2648,"Ne":2649,"Never":2650,"To":2651,"Thank":2652,"UR":2653,"Until":2654,"Where":2655,"aith":2656,"aby":2657,"cl":2658,"cr":2659,"cent":2660,"ding":2661,"down":2662,"dig":2663,"damn":2664,"face":2665,"fts":2666,"iot":2667,"ich":2668,"ipp":2669,"ize":2670,"knock":2671,"lan":2672,"no":2673,"oh":2674,"oid":2675,"ped":2676,"ple":2677,"pel":2678,"rain":2679,"rpheus":2680,"sP":2681,"sha":2682,"sed":2683,"sThey":2684,"tch":2685,"ually":2686,"va":2687,"vi":2688,"vator":2689,"war":2690,"yr":2691,"Ġ2":2692,"heel":2693,"Ġtang":2694,"Ġtap":2695,"Ġtired":2696,"ination":2697,"Ġsal":2698,"Ġsch":2699,"Ġsame":2700,"Ġsum":2701,"Ġsinging":2702,"Ġsouth":2703,"Ġwait":2704,"Ġwicked":2705,"Ġwheel":2706,"Ġmourn":2707,"Ġban":2708,"Ġbat":2709,"Ġbill":2710,"Ġbrou":2711,"Ġbod":2712,"Ġbound":2713,"Ġbree":2714,"Ġless":2715,"Ġcow":2716,"Ġcook":2717,"Ġcries":2718,"Ġdin":2719,"Ġdove":2720,"Ġdro":2721,"Ġdire":2722,"Ġdiv":2723,"Ġdance":2724,"Ġyet":2725,"Ġfle":2726,"Ġfast":2727,"Ġfurn":2728,"Ġfence":2729,"Ġfact":2730,"itar":2731,"iture":2732,"isc":2733,"Ġgro":2734,"Ġgest":2735,"Ġgather":2736,"orse":2737,"ĠAm":2738,"ĠAnt":2739,"ĠAcross":2740,"erk":2741,"eral":2742,"Ġtooth":2743,"Ġtogether":2744,"Ġnor":2745,"Ġnaked":2746,"ĠTod":2747,"ĠTIM":2748,"Ġint":2749,"Ġinch":2750,"Ġhoney":2751,"Ġhip":2752,"Ġhuh":2753,"Ġple":2754,"Ġpur":2755,"Ġpant":2756,"Ġpink":2757,"Ġpiss":2758,"Ġpull":2759,"Ġoffe":2760,"ature":2761,"Ġhah":2762,"Ġhate":2763,"ĠWoo":2764,"ĠWill":2765,"ĠWild":2766,"otel":2767,"Ġrub":2768,"Ġratt":2769,"str":2770,"ster":2771,"ĠSh":2772,"ĠSha":2773,"ĠSuck":2774,"ĠSnow":2775,"Ġbeing":2776,"Ġbear":2777,"Ġbeat":2778,"amer":2779,"amed":2780,"Ġears":2781,"Ġearly":2782,"Ġeasy":2783,"Ġthr":2784,"Ġthunder":2785,"Ġstea":2786,"Ġstare":2787,"Ġkitc":2788,"Ġkept":2789,"Ġbab":2790,"Ġband":2791,"ĠHea":2792,"ĠHell":2793,"ĠHAVE":2794,"ĠOver":2795,"ĠOoh":2796,"ĠBy":2797,"ĠBilly":2798,"ghter":2799,"Ġforce":2800,"Ġliving":2801,"ading":2802,"ĠMust":2803,"ĠMiss":2804,"Ġlack":2805,"Ġlaug":2806,"Ġsheets":2807,"Ġwashed":2808,"Ġfront":2809,"ittin":2810,"ĠCol":2811,"ĠCMON":2812,"Ġrela":2813,",,,,,":2814,"iles":2815,"ĠDid":2816,"ĠDilly":2817,"ention":2818,"Ġje":2819,"Ġjaw":2820,"Ġsaying":2821,"Ġbloss":2822,"Ġmoan":2823,"ĠFore":2824,"ract":2825,"ĠGON":2826,"ode":2827,"Ġatte":2828,"tern":2829,"terday":2830,"Ġsafe":2831,"Ġgotten":2832,"Ġspo":2833,"Ġsparrow":2834,"rible":2835,"acks":2836,"ume":2837,"ĠNE":2838,"Ġshined":2839,"Ġshroud":2840,"Ġhosp":2841,"ĠPush":2842,"ĠPraise":2843,"Ġvan":2844,"Ġvill":2845,"mmm":2846,"Ġsuper":2847,"Ġcol":2848,"Ġcover":2849,"Ġbutcher":2850,"ĠWere":2851,"ĠRock":2852,"Ġcaught":2853,"ical":2854,"alking":2855,"quer":2856,"Ġshame":2857,"Ġwatched":2858,"ĠOnward":2859,"Ġseat":2860,"Ġsevent":2861,"Ġscreen":2862,"Ġscarlet":2863,"Ġbop":2864,"Ġswinging":2865,"Ġwond":2866,"Ġslip":2867,"Ġcrooked":2868,"Ġrainb":2869,"Ġsmashed":2870,"Ġendless":2871,"Ġdrove":2872,"Ġdrum":2873,"Ġdrug":2874,"Ġkeeps":2875,"Ġchair":2876,"Ġchapel":2877,"Ġcareful":2878,"sIt":2879,"Ġlights":2880,"Ġque":2881,"Ġquestion":2882,"maid":2883,"Ġhardly":2884,"Ġgunna":2885,"Ġcrying":2886,"Ġstands":2887,"ailed":2888,"Ġdarkness":2889,"ĠEveryone":2890,"ĠEverybody":2891,"Ġkisses":2892,"Ġgroo":2893,"Ġribb":2894,"Ġstranger":2895,"ancy":2896,"umbling":2897,"Ġflying":2898,"Ġlaughter":2899,"arewell":2900,"Ġrises":2901,"Ġships":2902,"ORK":2903,"Ġopened":2904,"Ġchee":2905,"Ġcheap":2906,"Ġfucked":2907,"Ġhorse":2908,"ĠLooking":2909,"Ġstarts":2910,"ival":2911,"ments":2912,"Ġwhispering":2913,"Ġcatch":2914,"Ġdeser":2915,"ĠMeus":2916,"Ġshoulder":2917,"Ġenough":2918,"Ġsits":2919,"Ġcorners":2920,"ĠBlack":2921,"Ġcrawling":2922,"Ġfists":2923,"????????":2924,"aaaa":2925,"Ġmermaid":2926,"ĠOrpheus":2927,"loving":2928,"Ġsurface":2929,"Ġcrossed":2930,"Ġdaught":2931,"Ġhills":2932,"ĠSaying":2933,"Ġjumping":2934,"Ġclimb":2935,"Ġtrial":2936,"Ġhealed":2937,"Ġgolden":2938,"Ġclosed":2939,"ĠKingdom":2940,"Ġhusbands":2941,"Ġsearch":2942,"Ġsoftly":2943,"Ġadmit":2944,"Ġactually":2945,"Ġbottom":2946,"âĢĵ\\":2947,"Ġdistant":2948,"Ġpenny":2949,"Ġkneel":2950,"Ġfeather":2951,"ĠAbominable":2952,"Ġbridge":2953,"Ġcaptured":2954,"Ġpointed":2955,"Ġseason":2956,"Ġsmiled":2957,"Ġchanging":2958,"Ġidea":2959,"Ġmarried":2960,"Ġlearn":2961,"Ġcrumbs":2962,"Ġgloves":2963,"Ġletters":2964,"Ġcreep":2965,"ĠREAL":2966,"Ġpocket":2967,"ĠStranger":2968,"Ġcarnival":2969,"Through":2970,"Ġelevator":2971,"Ġcomfort":2972,"Ġviper":2973,"knocking":2974,"warves":2975,"Ġbrought":2976,"Ġbodies":2977,"Ġbreeze":2978,"Ġfurniture":2979,"Ġgesture":2980,"ĠToday":2981,"ĠTIME":2982,"ĠSnowman":2983,"Ġkitchen":2984,"Ġlaughed":2985,"Ġrelax":2986,"ĠForever":2987,"ĠGONNA":2988,"Ġsparrows":2989,"Ġhospital":2990,"Al":2991,"ED":2992,"EL":2993,"Foi":2994,"Hard":2995,"Kisa":2996,"Love":2997,"Mer":2998,"OUR":2999,"Orpheus":3000,"Papa":3001,"SEL":3002,"Tis":3003,"With":3004,"Why":3005,"aim":3006,"apping":3007,"azing":3008,"bt":3009,"bit":3010,"ber":3011,"bone":3012,"bby":3013,"cha":3014,"cene":3015,"dice":3016,"dden":3017,"dress":3018,"ex":3019,"eon":3020,"eat":3021,"ges":3022,"gly":3023,"gine":3024,"ippy":3025,"ians":3026,"kind":3027,"lt":3028,"mark":3029,"most":3030,"mories":3031,"nter":3032,"oll":3033,"old":3034,"pic":3035,"riend":3036,"sC":3037,"sShe":3038,"sThere":3039,"sWhen":3040,"sHey":3041,"sCome":3042,"sAs":3043,"tin":3044,"uit":3045,"ued":3046,"ual":3047,"uly":3048,"vin":3049,"vive":3050,"we":3051,"woo":3052,"white":3053,"yn":3054,"yre":3055,"Ġ.":3056,"Ġz":3057,"Ġice":3058,"Ġiv":3059,"Ġtide":3060,"Ġtied":3061,"Ġtakes":3062,"Ġtend":3063,"Ġtort":3064,"inary":3065,"Ġsin":3066,"Ġsell":3067,"Ġsel":3068,"Ġsink":3069,"Ġsang":3070,"Ġsings":3071,"Ġsimp":3072,"Ġwing":3073,"Ġweak":3074,"Ġmr":3075,"Ġmin":3076,"Ġmound":3077,"Ġmorn":3078,"Ġmud":3079,"Ġmmmmm":3080,"Ġmush":3081,"Ġmountain":3082,"Ġmaster":3083,"read":3084,"Ġboo":3085,"Ġbone":3086,"Ġbark":3087,"Ġbomb":3088,"ony":3089,"oning":3090,"Ġlun":3091,"Ġline":3092,"Ġloose":3093,"Ġlater":3094,"Ġlucky":3095,"inger":3096,"Ġcer":3097,"Ġcut":3098,"Ġcent":3099,"Ġcons":3100,"Ġdou":3101,"Ġdun":3102,"Ġdel":3103,"Ġdep":3104,"Ġdepth":3105,"Ġdamn":3106,"Ġya":3107,"Ġfut":3108,"Ġfaith":3109,"itch":3110,"itation":3111,"owing":3112,"haven":3113,"ises":3114,"ister":3115,"Ġgen":3116,"Ġgent":3117,"orta":3118,"ĠAg":3119,"ĠAst":3120,"esc":3121,"erich":3122,"Ġtomb":3123,"Ġtossed":3124,"edest":3125,"omed":3126,"Ġner":3127,"Ġnone":3128,"Ġnag":3129,"Ġnails":3130,"Ġnarrow":3131,"Ġnature":3132,"Ġnailed":3133,"ĠTen":3134,"ĠTell":3135,"ĠTwo":3136,"Ġins":3137,"Ġinter":3138,"Ġinte":3139,"Ġhoo":3140,"Ġhump":3141,"Ġpe":3142,"Ġpot":3143,"Ġpee":3144,"Ġpie":3145,"Ġpig":3146,"Ġpick":3147,"Ġpaw":3148,"Ġpleas":3149,"Ġpool":3150,"Ġpec":3151,"Ġpimp":3152,"Ġpage":3153,"Ġpsy":3154,"Ġpedest":3155,"ening":3156,"ened":3157,"enny":3158,"atter":3159,"atto":3160,"atic":3161,"ete":3162,",,,":3163,"Ġmead":3164,"Ġmerely":3165,"ĠWr":3166,"ĠWrapped":3167,"ĠWatching":3168,"otic":3169,"otograp":3170,"Ġru":3171,"Ġrow":3172,"Ġrap":3173,"Ġrhy":3174,"Ġrails":3175,"Ġroof":3176,"ooooo":3177,"ĠSc":3178,"ĠSy":3179,"ĠSand":3180,"ĠSave":3181,"ĠSup":3182,"ĠSally":3183,"ĠSuch":3184,"Ġbend":3185,"ĠThese":3186,"Ġelectri":3187,"irling":3188,"iding":3189,"ides":3190,"Ġstuck":3191,"Ġstop":3192,"Ġstock":3193,"Ġstead":3194,"Ġstared":3195,"Ġstones":3196,"Ġstorms":3197,"Ġkey":3198,"Ġbared":3199,"east":3200,"ĠHig":3201,"ĠHair":3202,"ĠHotel":3203,"ĠOF":3204,"Ġur":3205,"Ġund":3206,"ĠBam":3207,"ĠBos":3208,"selves":3209,"Ġweather":3210,"Ġherself":3211,"illhaven":3212,"ĠYack":3213,"ĠYORK":3214,"ĠYOUR":3215,"Ġliar":3216,"Ġlime":3217,"Ġlift":3218,"Ġlikes":3219,"imson":3220,"ĠMc":3221,"ĠMal":3222,"ĠMond":3223,"ĠMillhaven":3224,"altar":3225,"Ġlap":3226,"ainst":3227,"alls":3228,"Ġshed":3229,"Ġknown":3230,"Ġknuck":3231,"Ġknelt":3232,"cept":3233,"Ġwash":3234,"ĠCO":3235,"ĠCh":3236,"ĠCl":3237,"ĠCr":3238,"ĠCha":3239,"ĠCar":3240,"ĠCame":3241,"ĠCIT":3242,"ĠCrying":3243,"Ġrel":3244,"Ġrepe":3245,"ĠDa":3246,"Ġnear":3247,"Ġjo":3248,"Ġjail":3249,"Ġjesus":3250,"Ġjob":3251,"Ġjudge":3252,"Ġmock":3253,"ĠFr":3254,"ĠFull":3255,"ĠFiring":3256,"ĠFarewell":3257,"ĠGone":3258,"ĠGene":3259,"ĠGoodbye":3260,"ĠGibr":3261,"Ġnotch":3262,"Ġlonger":3263,"Ġrocks":3264,"nace":3265,"Ġashes":3266,"Ġsol":3267,"bered":3268,"Ġspill":3269,"Ġspark":3270,"Ġspider":3271,"used":3272,"Ġwork":3273,"ĠIts":3274,"ĠEmm":3275,"ĠElectri":3276,"Ġbrings":3277,"ummy":3278,"ĠNever":3279,"ĠNancy":3280,"Ġshit":3281,"Ġflames":3282,"Ġflower":3283,"Ġfireflies":3284,"Ġholl":3285,"ĠPeace":3286,"ĠPray":3287,"Ġseemed":3288,"asted":3289,"Ġvi":3290,"Ġval":3291,"Ġvic":3292,"Ġvult":3293,"Ġabatto":3294,"Ġsuit":3295,"Ġsudden":3296,"anding":3297,"Ġcoins":3298,"Ġbutter":3299,"ĠRe":3300,"ĠRose":3301,"ĠRaise":3302,"Ġcloth":3303,"Ġclaim":3304,"Ġlose":3305,"Ġlocked":3306,"Ġlocks":3307,"Ġlosing":3308,"igados":3309,"Ġplans":3310,"toe":3311,"Ġcab":3312,"Ġcap":3313,"ically":3314,"Ġpos":3315,"ĠUn":3316,"Ġhowling":3317,"icking":3318,"ĠJoy":3319,"Ġskirt":3320,"Ġalmost":3321,"ucker":3322,"ages":3323,"Ġprin":3324,"Ġprom":3325,"Ġsees":3326,"Ġheads":3327,"Ġscr":3328,"Ġwoah":3329,"Ġcrimson":3330,"Ġrains":3331,"Ġrainy":3332,"ĠSooner":3333,"Ġthinking":3334,"Ġanything":3335,"Ġdrif":3336,"Ġarbour":3337,"Ġkeeping":3338,"pered":3339,"Ġchains":3340,"Ġtwice":3341,"Ġtwirling":3342,"Ġlightning":3343,"Ġqueen":3344,"Ġbreak":3345,"Ġbeach":3346,"ighs":3347,"ugged":3348,"Ġacc":3349,"Ġwrit":3350,"Ġprey":3351,"Ġpressed":3352,"Ġbury":3353,"Ġexp":3354,"Ġexcus":3355,"ĠMama":3356,"ĠDog":3357,"Ġunderstand":3358,"Ġfog":3359,"Ġfoi":3360,"Ġgrief":3361,"Ġguitar":3362,"Ġprayers":3363,"ĠThirst":3364,"ĠThought":3365,"Ġstrang":3366,"Ġunl":3367,"iped":3368,"Ġmothers":3369,"umber":3370,"umbled":3371,"Ġconf":3372,"Ġgardens":3373,"ĠGoes":3374,"Ġrollin":3375,"Ġthank":3376,"Ġbreathing":3377,"Ġshiver":3378,"Ġbrighter":3379,"Ġgathered":3380,"Ġforget":3381,"ĠDeath":3382,"lowing":3383,"Ġtrace":3384,"Ġtracks":3385,"Ġbuilt":3386,"Ġcruel":3387,"Ġmiddle":3388,"Ġchecked":3389,"Ġcurses":3390,"Ġcurls":3391,"Ġothers":3392,"Ġhorror":3393,"ĠUpon":3394,"Ġappear":3395,"Ġdesire":3396,"Ġbegin":3397,"Ġengine":3398,"Ġkilled":3399,"ĠBlues":3400,"Ġcrawled":3401,"THING":3402,"Ġsquare":3403,"????,,,,\\":3404,"Ġwarm":3405,"Ġmighty":3406,"Ġhalls":3407,"box":3408,"ĠQu":3409,"Ġtalking":3410,"Ġhumming":3411,"Ġsurvive":3412,"Ġburned":3413,"Ġcastigados":3414,"Ġdriving":3415,"Ġyesterday":3416,"Ġvisiting":3417,"Ġscreams":3418,"Ġscreaming":3419,"Ġscreamed":3420,"Ġbreasts":3421,"Ġveins":3422,"Ġmission":3423,"Ġbrand":3424,"Ġbrave":3425,"Ġeaten":3426,"Ġserpent":3427,"Ġsearched":3428,"Ġfurnace":3429,"Ġhours":3430,"ĠMonro":3431,"Ġknocked":3432,"Ġremorse":3433,"hhhh":3434,"Ġbottle":3435,"ĠSometimes":3436,"ĠMrs":3437,"Ġlawn":3438,"Ġangels":3439,"ÂłÂłÂłÂłÂłÂłÂłÂłÂłÂłÂłÂłÂłÂłÂłÂłÂłÂłÂłÂłÂłÂłÂłÂłÂłÂłÂłÂłÂłÂłÂłÂł":3440,"iko":3441,"ossible":3442,"Ġimpossible":3443,"Ġterrible":3444,"Ġweap":3445,"Ġwires":3446,"Ġbanging":3447,"Ġfinal":3448,"Ġstairs":3449,"Ġsandman":3450,"Ġsmoke":3451,"Ġsmoking":3452,"Ġchanged":3453,"urydice":3454,"Ġleaping":3455,"Ġmotherfucker":3456,"Ġcurtains":3457,"Ġordinary":3458,"Ġmillion":3459,"Ġcircle":3460,"Ġgiving":3461,"Ġgalleon":3462,"Ġeastern":3463,"ursday":3464,"Ġpolice":3465,"neath":3466,"Ġmotion":3467,"Ġcities":3468,"Ġmeasure":3469,"ĠLucy":3470,"ĠGrand":3471,"Ġcostume":3472,"Ġsecret":3473,"Ġswallow":3474,"Ġfavourite":3475,"Everything":3476,"Next":3477,"shaped":3478,"Ġschool":3479,"Ġdirect":3480,"Ġgroan":3481,"Ġpurple":3482,"Ġoffended":3483,"Ġrattling":3484,"ĠSucking":3485,"Ġbabies":3486,"Ġjeans":3487,"ĠNEW":3488,"Ġcheek":3489,"Ġcreeping":3490,"Mercy":3491,"SELF":3492,"Ġself":3493,"Ġmmmmmmmm":3494,"Ġcertain":3495,"Ġdepths":3496,"Ġfuture":3497,"ĠAstonishing":3498,"Ġpecados":3499,"Ġpsych":3500,"ĠSandman":3501,"ĠHiggs":3502,"ĠBoson":3503,"ĠYOURSELF":3504,"ĠMonday":3505,"Ġknuckles":3506,"ĠCITY":3507,"ĠGeneva":3508,"ĠGibraltar":3509,"ĠEmmerich":3510,"ĠElectric":3511,"Ġvultures":3512,"Ġabattoir":3513,"Ġexcuses":3514,"ĠThirsty":3515,"**":3516,"/,,,,,,,,":3517,"84":3518,"984":3519,";,":3520,"Are":3521,"AIR":3522,"Be":3523,"Cling":3524,"Carry":3525,"Depth":3526,"Easy":3527,"Father":3528,"Falling":3529,"Green":3530,"Ha":3531,"Hear":3532,"Honey":3533,"Hallelujah":3534,"Into":3535,"Jangling":3536,"Lord":3537,"Loverman":3538,"OVE":3539,"Put":3540,"Pain":3541,"People":3542,"Please":3543,"Sl":3544,"St":3545,"Sorrow":3546,"Send":3547,"SOR":3548,"Sleeping":3549,"Under":3550,"Woo":3551,"aver":3552,"aff":3553,"aug":3554,"bl":3555,"bu":3556,"bar":3557,"bid":3558,"bong":3559,"bell":3560,"born":3561,"bird":3562,"bbed":3563,"ca":3564,"can":3565,"cle":3566,"cri":3567,"col":3568,"cern":3569,"four":3570,"fting":3571,"gl":3572,"ground":3573,"give":3574,"gate":3575,"hro":3576,"hood":3577,"iver":3578,"ized":3579,"jay":3580,"kles":3581,"ler":3582,"long":3583,"light":3584,"lter":3585,"mo":3586,"mes":3587,"mand":3588,"mpt":3589,"mbered":3590,"nin":3591,"nes":3592,"ner":3593,"nment":3594,"oom":3595,"och":3596,"ored":3597,"por":3598,"pernatur":3599,"rif":3600,"rod":3601,"rish":3602,"range":3603,"running":3604,"rona":3605,"sB":3606,"sh":3607,"so":3608,"shi":3609,"sAnd":3610,"sYeah":3611,"six":3612,"sOh":3613,"sThank":3614,"tched":3615,"two":3616,"tower":3617,"uct":3618,"vy":3619,"vice":3620,"vous":3621,"worms":3622,"xe":3623,"xic":3624,"zona":3625,"Ġir":3626,"Ġene":3627,"Ġought":3628,"Ġesc":3629,"het":3630,"Ġtea":3631,"Ġtall":3632,"Ġtight":3633,"Ġtowers":3634,"Ġtable":3635,"Ġtumbling":3636,"Ġtippy":3637,"inal":3638,"iness":3639,"inite":3640,"Ġaim":3641,"Ġawo":3642,"Ġaxe":3643,"Ġshat":3644,"Ġsent":3645,"Ġsons":3646,"Ġsign":3647,"Ġsnake":3648,"Ġwink":3649,"Ġwail":3650,"Ġwrapped":3651,"Ġwives":3652,"Ġwailing":3653,"Ġwaving":3654,"Ġwasted":3655,"Ġmed":3656,"Ġmal":3657,"Ġmess":3658,"Ġmag":3659,"Ġmention":3660,"reed":3661,"rest":3662,"render":3663,"reak":3664,"Ġbas":3665,"Ġbitt":3666,"Ġbent":3667,"Ġbought":3668,"Ġbase":3669,"Ġbisc":3670,"oned":3671,"Ġled":3672,"Ġlines":3673,"Ġlyre":3674,"Ġcro":3675,"Ġcher":3676,"Ġcord":3677,"Ġcough":3678,"Ġcards":3679,"Ġchiseling":3680,"Ġdee":3681,"Ġdim":3682,"Ġdand":3683,"Ġdest":3684,"Ġdick":3685,"Ġdies":3686,"Ġdiss":3687,"Ġdine":3688,"Ġdraw":3689,"Ġdwarves":3690,"Ġduly":3691,"Ġditch":3692,"Ġyawn":3693,"Ġfit":3694,"Ġfis":3695,"Ġfir":3696,"Ġfas":3697,"Ġfight":3698,"Ġfour":3699,"Ġfine":3700,"Ġfew":3701,"Ġfiring":3702,"vest":3703,"itary":3704,"itions":3705,"Ġyouth":3706,"ising":3707,"ision":3708,"Ġgas":3709,"Ġgong":3710,"Ġgur":3711,"Ġgag":3712,"orad":3713,"ĠAN":3714,"ĠAri":3715,"erpent":3716,"eroid":3717,"Ġtoss":3718,"eds":3719,"ana":3720,"ani":3721,"ari":3722,"Ġnamed":3723,"Ġheels":3724,"Ġoce":3725,"Ġobs":3726,"ĠTurn":3727,"ĠTrain":3728,"ĠTamer":3729,"Ġinn":3730,"Ġhi":3731,"Ġhomes":3732,"Ġpan":3733,"Ġpar":3734,"Ġpour":3735,"Ġpath":3736,"Ġpap":3737,"Ġpark":3738,"Ġport":3739,"Ġpict":3740,"Ġpicked":3741,"Ġpages":3742,"Ġonto":3743,"ens":3744,"atre":3745,"ates":3746,"ety":3747,"eter":3748,"Ġmeant":3749,"Ġmemories":3750,"ĠWhat":3751,"ĠWAN":3752,"ĠWorm":3753,"ĠWrap":3754,"ĠWinking":3755,"Ġrust":3756,"Ġrang":3757,"Ġrows":3758,"Ġraven":3759,"Ġrotten":3760,"stal":3761,"strou":3762,"stair":3763,"ĠSl":3764,"ĠSir":3765,"ĠSaw":3766,"ĠSees":3767,"ĠSnake":3768,"ĠSleeping":3769,"ĠSCIS":3770,"ĠSittin":3771,"ĠSerpent":3772,"ldren":3773,"Ġitself":3774,"Ġbehold":3775,"ams":3776,"ammed":3777,"Ġeight":3778,"Ġemb":3779,"Ġevol":3780,"Ġthird":3781,"Ġthirty":3782,"Ġthief":3783,"Ġthighs":3784,"idal":3785,"ident":3786,"Ġstom":3787,"Ġsteep":3788,"Ġstup":3789,"Ġstab":3790,"Ġstool":3791,"Ġstations":3792,"Ġstories":3793,"Ġstacked":3794,"vernment":3795,"ason":3796,"Ġkick":3797,"Ġbal":3798,"Ġbare":3799,"Ġbarely":3800,"eave":3801,"ĠHa":3802,"ĠHor":3803,"ĠHal":3804,"ĠHol":3805,"ĠHail":3806,"Ġuntil":3807,"Ġugly":3808,"ĠBear":3809,"ĠBack":3810,"ĠBang":3811,"ĠBeneath":3812,"ĠBaby":3813,"ĠBeast":3814,"ĠBiko":3815,"Ġweb":3816,"illa":3817,"Ġlifet":3818,"kelet":3819,"ades":3820,"aded":3821,"ĠLe":3822,"ĠLittle":3823,"ĠLie":3824,"ĠLarry":3825,"ĠLift":3826,"ĠLoch":3827,"imeter":3828,"ĠMat":3829,"ĠMick":3830,"aly":3831,"ales":3832,"unched":3833,"Ġshep":3834,"Ġshelter":3835,"cel":3836,"usted":3837,"Ġfray":3838,"Ġfrost":3839,"ĠChi":3840,"ĠCross":3841,"ĠCAN":3842,"ĠCraw":3843,"ĠChiseling":3844,"Ġupward":3845,"Ġupstair":3846,"Ġrep":3847,"Ġres":3848,"Ġreleas":3849,"Ġrevol":3850,"Ġrejoice":3851,"Ġreason":3852,"iled":3853,"ĠJim":3854,"ĠJump":3855,"ĠJames":3856,"ĠJangling":3857,"chor":3858,"hole":3859,"hic":3860,"elly":3861,"ĠDanc":3862,"ĠDarling":3863,"ĠDrag":3864,"Ġgovernment":3865,"Ġmang":3866,"Ġjar":3867,"Ġjourn":3868,"Ġjerk":3869,"Ġjelly":3870,"Ġblazing":3871,"ĠFR":3872,"ĠFl":3873,"ĠFIX":3874,"Ġcometh":3875,"Ġnod":3876,"ĠGr":3877,"ĠGreen":3878,"ampire":3879,"iew":3880,"Ġant":3881,"Ġankles":3882,"Ġanchor":3883,"Ġdog":3884,"Ġdoctor":3885,"Ġdoomed":3886,"ific":3887,"Ġsap":3888,"Ġsav":3889,"Ġroar":3890,"Ġrope":3891,"roll":3892,"road":3893,"Ġcane":3894,"eless":3895,"Ġash":3896,"Ġasleep":3897,"Ġspur":3898,"Ġspell":3899,"Ġspears":3900,"rick":3901,"acker":3902,"Ġworst":3903,"Ġworking":3904,"ĠEurydice":3905,"pper":3906,"ionist":3907,"Ġbru":3908,"Ġbrittle":3909,"Ġbranc":3910,"umn":3911,"umed":3912,"umble":3913,"ĠNess":3914,"ĠNew":3915,"Ġshook":3916,"Ġshort":3917,"Ġshowers":3918,"Ġshines":3919,"Ġshoveling":3920,"Ġflown":3921,"Ġflag":3922,"Ġflaming":3923,"gered":3924,"geons":3925,"ĠPain":3926,"ĠPour":3927,"ĠPast":3928,"ĠPoor":3929,"ĠPAIR":3930,"Ġgirlish":3931,"asting":3932,"astic":3933,"Ġvir":3934,"Ġvast":3935,"Ġvict":3936,"Ġvibr":3937,"Ġvampire":3938,"Ġabs":3939,"Ġabsence":3940,"inky":3941,"Ġsuitc":3942,"Ġsupernatur":3943,"ands":3944,"Ġ(&":3945,"Ġaint":3946,"ĠRider":3947,"Ġclock":3948,"Ġclaw":3949,"Ġloom":3950,"Ġloss":3951,"reek":3952,"Ġplot":3953,"Ġplum":3954,"Ġplanted":3955,"Ġplaces":3956,"Ġplastic":3957,"Ġdrew":3958,"hedr":3959,"Ġpoet":3960,"Ġlooks":3961,"que":3962,"Ġago":3963,"Ġshack":3964,"Ġshake":3965,"angler":3966,"Ġalert":3967,"Ġalright":3968,"Ġblackened":3969,"agers":3970,"ĠOnce":3971,"Ġsciss":3972,"Ġscene":3973,"Ġboot":3974,"Ġbold":3975,"Ġboss":3976,"Ġbolo":3977,"Ġwolfman":3978,"Ġslum":3979,"Ġslumber":3980,"Ġcrown":3981,"Ġcrime":3982,"Ġcrush":3983,"ĠKick":3984,"ĠKrish":3985,"Ġdemon":3986,"ĠSoaked":3987,"Ġstretch":3988,"Ġanyway":3989,"Ġwhom":3990,"Ġwhist":3991,"olog":3992,"Ġcarried":3993,"Ġcouldn":3994,"Ġdrank":3995,"Ġdrift":3996,"eyed":3997,"Ġarm":3998,"Ġarrow":3999,"pect":4000,"Ġchar":4001,"Ġolds":4002,"ude":4003,"Ġfloating":4004,"Ġglisten":4005,"Ġhimself":4006,"thm":4007,"Ġtwenny":4008,"Ġmoral":4009,"Ġtowns":4010,"Ġpreach":4011,"Ġpresence":4012,"Ġfalls":4013,"Ġdeepest":4014,"Ġheaters":4015,"acing":4016,"aced":4017,"ached":4018,"Ġpainted":4019,"ĠMambo":4020,"Ġholds":4021,"Ġholding":4022,"Ġunderneath":4023,"ĠEverything":4024,"Ġbedroom":4025,"Ġfox":4026,"Ġfoot":4027,"uffed":4028,"Ġwaved":4029,"Ġgrown":4030,"Ġgrie":4031,"Ġgrinning":4032,"Ġgreasy":4033,"Ġasks":4034,"Ġbathroom":4035,"ĠThough":4036,"ĠThursday":4037,"Ġstrong":4038,"Ġunf":4039,"Ġlovers":4040,"Ġloverman":4041,"ipes":4042,"ĠJanet":4043,"Ġbrothers":4044,"ably":4045,"Ġrooms":4046,"Ġshore":4047,"Ġcont":4048,"Ġconquer":4049,"Ġconcern":4050,"otted":4051,"ended":4052,"Ġparty":4053,"ĠJohnson":4054,"Ġwatching":4055,"Ġsilk":4056,"Ġship":4057,"Ġshifts":4058,"Ġrivers":4059,"ĠAli":4060,"ĠAlive":4061,"ansas":4062,"Ġtrack":4063,"Ġtrapped":4064,"Ġtravel":4065,"Ġmatch":4066,"Ġbuild":4067,"Ġchest":4068,"Ġfucker":4069,"Ġcrows":4070,"Ġrage":4071,"Ġwhisper":4072,"Ġwhispered":4073,"Ġcatast":4074,"Ġcathedr":4075,"Ġpushed":4076,"Ġapple":4077,"Ġappears":4078,"Ġdescri":4079,"Ġbegan":4080,"Ġbegins":4081,"ĠMemory":4082,"Ġchill":4083,"Ġkiller":4084,"ĠBlake":4085,"Ġcannib":4086,"ibu":4087,"Ġlately":4088,"oooooo":4089,"Ġkingdom":4090,"Ġspeaking":4091,"ĠNothing":4092,"Ġbroke":4093,"Ġcreatures":4094,"Ġdigging":4095,"Ġfuneral":4096,"ĠCharmer":4097,"ĠKeeper":4098,"board":4099,"inese":4100,"Ġmonstrou":4101,"Ġdefend":4102,"Ġdefeat":4103,"Ġdefinite":4104,"Ġghosts":4105,"Ġghosteen":4106,"Ġhotel":4107,"Ġhumps":4108,"Ġplanned":4109,"Ġsurrender":4110,"ression":4111,"Ġcounting":4112,"Ġdriver":4113,"ĠHolly":4114,"Ġvision":4115,"Ġvisits":4116,"Ġfollow":4117,"Ġdisg":4118,"Ġhealing":4119,"Ġhurts":4120,"ĠWoah":4121,"Ġrides":4122,"Ġeaters":4123,"Ġhopes":4124,"Ġcloser":4125,"Ġserve":4126,"Ġdances":4127,"Ġrags":4128,"Ġstrike":4129,"ĠMonster":4130,"ĠComes":4131,"Ġremain":4132,"Ġsorrowful":4133,"Ġtune":4134,"Ġmirac":4135,"Ġinvitation":4136,"Ġbecome":4137,"Ġbecame":4138,"ĠChristian":4139,"Ġangel":4140,"Ġ100":4141,"Ġ1984":4142,"Ġastrona":4143,"Ġasteroid":4144,"Ġweaves":4145,"Ġlotus":4146,"ĠAbout":4147,"Ġstepped":4148,"Ġsands":4149,"Ġsplit":4150,"Ġsplashed":4151,"Ġspirit":4152,"Ġbridges":4153,"Ġclouds":4154,"Ġcaptain":4155,"Ġleaning":4156,"Ġleaned":4157,"Ġidiot":4158,"Ġawake":4159,"Ġmaj":4160,"Ġlearned":4161,"Ġcounter":4162,"Ġhym":4163,"Ġperimeter":4164,"Ġmotherfucking":4165,"Ġcrowds":4166,"Ġimag":4167,"Ġwreck":4168,"Ġwounds":4169,"âĢĶ\\":4170,"Ġlady":4171,"Ġladies":4172,"Ġgiant":4173,"Ġgallow":4174,"ĠSeize":4175,"Ġbeasts":4176,"Ġthickly":4177,"Ġstopped":4178,"Ġuntangle":4179,"Ġreflect":4180,"Ġneighbours":4181,"Ġbrains":4182,"Ġquickly":4183,"liness":4184,"Ġauthor":4185,"Ġweek":4186,"Ġcandle":4187,"Ġdragged":4188,"Ġfamily":4189,"Ġprize":4190,"Ġrabbit":4191,"Ġuseless":4192,"Ġspring":4193,"Ġsucking":4194,"Ġchange":4195,"Ġsqueezed":4196,"ernaturally":4197,"Ġdisappear":4198,"Ġdisappeared":4199,"Ġtangled":4200,"Ġdrops":4201,"Ġdivided":4202,"Ġflew":4203,"ĠAmen":4204,"ĠAnthro":4205,"Ġinchworms":4206,"Ġpissed":4207,"Ġthrill":4208,"Ġbandstand":4209,"ĠHeaven":4210,"Ġblossoms":4211,"Ġattempt":4212,"Ġspoke":4213,"Ġsupermark":4214,"Ġcolour":4215,"Ġseventh":4216,"Ġwondered":4217,"Ġrainbow":4218,"Ġdrugs":4219,"Ġqueue":4220,"Ġgroove":4221,"Ġribbons":4222,"Ġdeserts":4223,"Ġmermaids":4224,"Ġdaughters":4225,"Ġmushroom":4226,"Ġmountains":4227,"Ġbooze":4228,"Ġbarkeep":4229,"Ġcentre":4230,"Ġdoubt":4231,"ĠAgainst":4232,"Ġnervous":4233,"Ġinterest":4234,"Ġpeeled":4235,"Ġpedestal":4236,"Ġmeadow":4237,"ĠWrangler":4238,"otographed":4239,"Ġrhythm":4240,"oooooow":4241,"ĠSupernaturally":4242,"Ġsteady":4243,"ĠMalibu":4244,"ĠCOOL":4245,"ĠChinese":4246,"Ġrepeating":4247,"Ġjailhouse":4248,"Ġsolitary":4249,"Ġviol":4250,"Ġvicious":4251,"Ġbutterflies":4252,"ĠRejoice":4253,"Ġcapital":4254,"Ġprincess":4255,"Ġwrithed":4256,"Ġstrangers":4257,"Ġunlucky":4258,"SORS":4259,"birds":4260,"coloured":4261,"ninth":4262,"Ġiron":4263,"Ġescap":4264,"Ġawoke":4265,"Ġshattered":4266,"Ġbitter":4267,"Ġbasement":4268,"Ġdeejay":4269,"Ġdandel":4270,"Ġfirm":4271,"Ġfashi":4272,"Ġguru":4273,"orado":4274,"ĠArizona":4275,"Ġocean":4276,"ĠWANT":4277,"ĠSCISSORS":4278,"Ġembra":4279,"Ġstupid":4280,"Ġstabbed":4281,"ĠHalf":4282,"ĠHolmes":4283,"Ġlifetime":4284,"ĠChildren":4285,"Ġupstairs":4286,"Ġreleased":4287,"ĠDragging":4288,"Ġjourney":4289,"Ġbranches":4290,"Ġvibrating":4291,"Ġsuitcase":4292,"Ġsupernatural":4293,"Ġalertness":4294,"ĠKrishna":4295,"Ġglistens":4296,"Ġtravelator":4297,"Ġdescribe":4298,"Ġcannibals":4299,"Ġmonstrous":4300,"Ġdefinitely":4301,"Ġastronaut":4302,"ĠAnthrocene":4303,"Ġsupermarket":4304,"..":4305,"32":4306,";&":4307,"AS":4308,"At":4309,"Across":4310,"Beneath":4311,"Baby":4312,"CK":4313,"CO":4314,"Com":4315,"Call":4316,"Calling":4317,"Drop":4318,"DER":4319,"FK":4320,"Far":4321,"Full":4322,"Go":4323,"Got":4324,"Graw":4325,"Glowing":4326,"His":4327,"Hats":4328,"Huh":4329,"Hold":4330,"Its":4331,"Jack":4332,"Jesus":4333,"La":4334,"Let":4335,"Look":4336,"Leave":4337,"LAS":4338,"Mary":4339,"Makes":4340,"Mmmmm":4341,"OG":4342,"OM":4343,"Of":4344,"Out":4345,"OTHING":4346,"Peace":4347,"Que":4348,"RY":4349,"Right":4350,"Raise":4351,"Sw":4352,"See":4353,"Some":4354,"Somet":4355,"Said":4356,"Sugar":4357,"Skelet":4358,"TU":4359,"Ten":4360,"Take":4361,"Thr":4362,"UM":4363,"Uh":4364,"Up":4365,"War":4366,"Wait":4367,"af":4368,"ax":4369,"app":4370,"away":4371,"br":4372,"bly":4373,"bear":4374,"back":4375,"bling":4376,"bound":4377,"bles":4378,"bert":4379,"bury":4380,"backed":4381,"bably":4382,"cam":4383,"cif":4384,"crow":4385,"cles":4386,"chan":4387,"cond":4388,"comb":4389,"comin":4390,"covered":4391,"chard":4392,"cony":4393,"dow":4394,"ded":4395,"dess":4396,"dream":4397,"dwarves":4398,"eg":4399,"em":4400,"eve":4401,"eed":4402,"ender":4403,"eets":4404,"eous":4405,"epping":4406,"fy":4407,"fri":4408,"fers":4409,"fess":4410,"form":4411,"friend":4412,"faced":4413,"gg":4414,"gr":4415,"gt":4416,"gin":4417,"gie":4418,"girl":4419,"gins":4420,"games":4421,"goodbye":4422,"how":4423,"hil":4424,"horn":4425,"hundred":4426,"hotographed":4427,"iz":4428,"ias":4429,"ient":4430,"iving":4431,"ipe":4432,"izen":4433,"izz":4434,"kn":4435,"kim":4436,"kbar":4437,"kansas":4438,"lon":4439,"las":4440,"lers":4441,"lic":4442,"line":4443,"like":4444,"mn":4445,"mp":4446,"mot":4447,"mas":4448,"mant":4449,"made":4450,"ners":4451,"nine":4452,"oing":4453,"ole":4454,"oast":4455,"oak":4456,"oic":4457,"oons":4458,"olling":4459,"po":4460,"ping":4461,"pit":4462,"put":4463,"phere":4464,"ring":4465,"rit":4466,"rot":4467,"rie":4468,"rup":4469,"ser":4470,"sal":4471,"sers":4472,"sue":4473,"singing":4474,"sWe":4475,"sYes":4476,"sMy":4477,"sThis":4478,"sAll":4479,"sGet":4480,"sailing":4481,"sThrough":4482,"sJesus":4483,"skim":4484,"tow":4485,"tle":4486,"there":4487,"tter":4488,"time":4489,"this":4490,"tta":4491,"talking":4492,"uc":4493,"uable":4494,"uits":4495,"uced":4496,"uition":4497,"uction":4498,"vill":4499,"vation":4500,"vides":4501,"what":4502,"wind":4503,"wife":4504,"watching":4505,"writ":4506,"ys":4507,"yle":4508,"yard":4509,"yman":4510,"yps":4511,"ype":4512,"zin":4513,"zum":4514,"¦..":4515,"Ġ3":4516,"Ġ4":4517,"ĠZ":4518,"Ġi":4519,"Ġer":4520,"Ġill":4521,"hel":4522,"hend":4523,"heck":4524,"head":4525,"Ġtas":4526,"Ġtil":4527,"Ġtie":4528,"Ġtast":4529,"Ġtest":4530,"Ġtab":4531,"Ġtorm":4532,"Ġtimes":4533,"Ġtank":4534,"Ġtails":4535,"Ġtips":4536,"Ġtyr":4537,"Ġtype":4538,"inf":4539,"iny":4540,"incent":4541,"Ġav":4542,"Ġaby":4543,"Ġsain":4544,"Ġsna":4545,"Ġsigh":4546,"Ġsins":4547,"Ġsittin":4548,"Ġsister":4549,"oug":4550,"ouis":4551,"Ġwha":4552,"Ġwed":4553,"Ġwoo":4554,"Ġwid":4555,"Ġwand":4556,"Ġwest":4557,"Ġwag":4558,"Ġwise":4559,"Ġwrap":4560,"Ġmut":4561,"Ġmist":4562,"Ġmap":4563,"Ġmice":4564,"Ġmuse":4565,"Ġmac":4566,"Ġmoth":4567,"rer":4568,"rey":4569,"reme":4570,"rehend":4571,"Ġbus":4572,"Ġbers":4573,"Ġbum":4574,"Ġbul":4575,"Ġbord":4576,"Ġbother":4577,"Ġbub":4578,"Ġbough":4579,"Ġboth":4580,"Ġbitten":4581,"Ġbunch":4582,"Ġling":4583,"Ġlamp":4584,"Ġlame":4585,"Ġlord":4586,"Ġlup":4587,"Ġlark":4588,"Ġlined":4589,"Ġcust":4590,"Ġcho":4591,"Ġcamp":4592,"Ġcunning":4593,"Ġcots":4594,"Ġcamer":4595,"Ġcode":4596,"Ġcuffed":4597,"âĢĻ,":4598,"Ġder":4599,"Ġdam":4600,"Ġdea":4601,"Ġdut":4602,"Ġdust":4603,"Ġdart":4604,"Ġdise":4605,"Ġdare":4606,"Ġdough":4607,"Ġdrop":4608,"Ġdwell":4609,"Ġdipped":4610,"Ġdyn":4611,"Ġdude":4612,"llar":4613,"Ġyield":4614,"Ġfed":4615,"Ġfan":4616,"Ġfame":4617,"Ġfive":4618,"Ġfang":4619,"Ġfears":4620,"Ġfiend":4621,"Ġfier":4622,"Ġfading":4623,"Ġfreak":4624,"ited":4625,"itic":4626,"haved":4627,"hausted":4628,"isters":4629,"isfy":4630,"Ġga":4631,"Ġgar":4632,"Ġgee":4633,"Ġgame":4634,"Ġgap":4635,"Ġginger":4636,"org":4637,"ĠAin":4638,"ĠAround":4639,"ĠAaaaa":4640,"ĠAfri":4641,"ĠAkbar":4642,"ero":4643,"erry":4644,"Ġtoes":4645,"Ġtoys":4646,"ednes":4647,"anbury":4648,"arm":4649,"arian":4650,"arious":4651,"Ġnun":4652,"Ġnigh":4653,"Ġnames":4654,"Ġhen":4655,"Ġheight":4656,"Ġhears":4657,"Ġoven":4658,"ĠTall":4659,"ĠTil":4660,"ĠThing":4661,"ĠTime":4662,"ĠTap":4663,"ĠTurning":4664,"ĠTrying":4665,"ĠThank":4666,"ĠTex":4667,"Ġind":4668,"Ġink":4669,"Ġinse":4670,"Ġhun":4671,"Ġhind":4672,"Ġhook":4673,"Ġhugged":4674,"Ġpet":4675,"Ġpill":4676,"Ġpun":4677,"Ġpra":4678,"Ġpear":4679,"Ġpred":4680,"Ġpul":4681,"Ġporn":4682,"Ġpub":4683,"Ġpile":4684,"Ġpowers":4685,"Ġpian":4686,"Ġpoured":4687,"Ġpract":4688,"Ġpacing":4689,"Ġonward":4690,"ena":4691,"ency":4692,"atly":4693,"attered":4694,"etho":4695,"Ġmend":4696,"Ġmeat":4697,"Ġmeows":4698,"ley":4699,"lemn":4700,"Ġhatc":4701,"Ġhaunt":4702,"ĠWh":4703,"ĠWet":4704,"ĠWay":4705,"ĠWould":4706,"ĠWalk":4707,"ĠWhis":4708,"ĠWoooo":4709,"ĠWhite":4710,"ĠWalking":4711,"ĠWednes":4712,"otes":4713,"Ġrat":4714,"Ġramp":4715,"Ġrus":4716,"Ġrul":4717,"stit":4718,"stone":4719,"stood":4720,"sters":4721,"stepping":4722,"ĠSing":4723,"ĠSan":4724,"ĠSat":4725,"ĠSain":4726,"ĠSent":4727,"ĠSear":4728,"ĠSpe":4729,"ĠSAN":4730,"ĠSouth":4731,"ĠSlow":4732,"ĠShr":4733,"ĠSatur":4734,"ĠSapp":4735,"lding":4736,"ldier":4737,"cken":4738,"ckoning":4739,"Ġbeers":4740,"Ġbears":4741,"Ġbeats":4742,"Ġbelong":4743,"Ġbeckoning":4744,"amite":4745,"owning":4746,"Ġear":4747,"Ġech":4748,"Ġequ":4749,"Ġeff":4750,"irth":4751,"Ġthorn":4752,"iday":4753,"idence":4754,"Ġsten":4755,"Ġstir":4756,"Ġstink":4757,"Ġstalk":4758,"Ġstol":4759,"Ġstable":4760,"Ġstraw":4761,"Ġstumbled":4762,"Ġisn":4763,"Ġissue":4764,"ashing":4765,"asures":4766,"Ġball":4767,"Ġbast":4768,"Ġbabo":4769,"ealing":4770,"ĠHad":4771,"ĠHind":4772,"ĠHand":4773,"ĠHild":4774,"ĠHmmmm":4775,"ĠHatt":4776,"ĠHaving":4777,"ĠHari":4778,"ĠOk":4779,"ĠOoooo":4780,"Ġumb":4781,"Ġutter":4782,"oved":4783,"oven":4784,"uts":4785,"utting":4786,"utching":4787,"ĠBill":4788,"ĠBest":4789,"ĠBreat":4790,"ĠBuck":4791,"ĠBird":4792,"ĠBlow":4793,"ĠBanbury":4794,"sel":4795,"Ġweird":4796,"Ġweeds":4797,"Ġhers":4798,"Ġform":4799,"Ġfors":4800,"Ġforth":4801,"Ġforward":4802,"Ġformer":4803,"Ġforced":4804,"Ġforbid":4805,"illing":4806,"illac":4807,"ĠYa":4808,"Ġlion":4809,"Ġlimb":4810,"Ġlifts":4811,"kered":4812,"adle":4813,"adillac":4814,"ongst":4815,"ĠLor":4816,"ĠLea":4817,"ĠLight":4818,"ĠLake":4819,"ĠLive":4820,"ĠLore":4821,"ĠLying":4822,"ĠLott":4823,"ĠLost":4824,"ĠLOVE":4825,"ĠLouis":4826,"imme":4827,"imbed":4828,"imination":4829,"ĠMay":4830,"ĠMake":4831,"ĠMic":4832,"ĠMouse":4833,"ĠMakes":4834,"ĠMaking":4835,"ĠMile":4836,"ĠMade":4837,"ĠMIS":4838,"ĠMiles":4839,"ĠMummy":4840,"ĠMetho":4841,"aled":4842,"Ġlab":4843,"Ġlaid":4844,"Ġlake":4845,"Ġlaces":4846,"Ġlaunch":4847,"une":4848,"unken":4849,"unches":4850,"urb":4851,"urled":4852,"urotic":4853,"Ġknives":4854,"Ġfright":4855,"Ġfranc":4856,"Ġfruit":4857,"itted":4858,"ittery":4859,"ĠCal":4860,"ĠCould":4861,"ĠCap":4862,"ĠCirc":4863,"ĠCreek":4864,"ĠCoast":4865,"ĠCutting":4866,"Ġreve":4867,"Ġreck":4868,"Ġreap":4869,"Ġresp":4870,"Ġrepent":4871,"ils":4872,"ilet":4873,"ilty":4874,"ilted":4875,"ilgames":4876,"ĠJef":4877,"ĠJav":4878,"ĠJew":4879,"ĠJFK":4880,"ellie":4881,"ĠDri":4882,"ĠDink":4883,"ĠDest":4884,"ĠDark":4885,"ĠDav":4886,"ĠDaddy":4887,"ĠDoug":4888,"Ġmanes":4889,"Ġmanner":4890,"Ġnegl":4891,"Ġneatly":4892,"Ġneurotic":4893,"ently":4894,"Ġjun":4895,"Ġjug":4896,"Ġjew":4897,"Ġjammed":4898,"Ġjittery":4899,"Ġbliss":4900,"Ġblock":4901,"Ġmovin":4902,"ĠFall":4903,"ĠFirst":4904,"ĠFalling":4905,"ĠFalls":4906,"Ġknowled":4907,"Ġcombed":4908,"Ġcommand":4909,"Ġnose":4910,"Ġnoise":4911,"raid":4912,"rage":4913,"ĠGirl":4914,"ĠGive":4915,"ĠGreat":4916,"ĠGab":4917,"ĠGhost":4918,"ĠGimme":4919,"ĠGilgames":4920,"ampled":4921,"iek":4922,"Ġanaly":4923,"Ġangered":4924,"Ġdozen":4925,"Ġdollar":4926,"iff":4927,"odged":4928,"Ġatt":4929,"ants":4930,"Ġnote":4931,"Ġrob":4932,"Ġroared":4933,"Ġtheyve":4934,"ĠâĢĶ":4935,"ĠâĢ¦..":4936,"ros":4937,"roached":4938,"Ġoutta":4939,"elic":4940,"Ġasses":4941,"Ġhandful":4942,"Ġsoil":4943,"Ġsoci":4944,"Ġsoaked":4945,"Ġsolemn":4946,"Ġspot":4947,"Ġspace":4948,"Ġspew":4949,"Ġspinal":4950,"usion":4951,"uspic":4952,"Ġchipped":4953,"rier":4954,"rian":4955,"riot":4956,"ripp":4957,"redom":4958,"Ġamber":4959,"Ġworth":4960,"Ġworshi":4961,"ĠEx":4962,"ĠEver":4963,"ĠEnt":4964,"ĠEating":4965,"ĠEach":4966,"ĠEasy":4967,"ĠEVE":4968,"ĠEtern":4969,"ĠEskim":4970,"ersucker":4971,"ppin":4972,"Ġbran":4973,"Ġbrook":4974,"Ġbride":4975,"Ġbrass":4976,"ums":4977,"ĠNor":4978,"ĠNear":4979,"ĠNOTHING":4980,"ĠNeed":4981,"ĠNellie":4982,"Ġshove":4983,"Ġshone":4984,"Ġshun":4985,"Ġshorta":4986,"ctly":4987,"Ġflu":4988,"Ġfled":4989,"Ġflapping":4990,"Ġfireman":4991,"istant":4992,"Ġhost":4993,"ĠPl":4994,"ĠPer":4995,"ĠPro":4996,"ĠPull":4997,"ĠPop":4998,"ĠPac":4999}